28f6
217a
2b07
a0f9
1e7e
acf5
a310
a4a8
a8e3
9b8e
a649
27d7
291a
a7eb
26d3
a0cd
a4ab
263f
9f70
9bf8
ad08
29a8
a17d
292e
9997
26a0
2700
1f68
a928
a021
ac55
aa00
a1a6
a71b
a1dc
227d
28d1
ac0e
17f4
a80c
b015
9e00
aca2
2aa1
1ed4
ac62
241c
ab1d
2498
2caa
a3c7
2822
aca1
258e
2c4f
2da8
2bb0
3102
a9dd
283b
1642
a7d6
a2f2
30ad
2794
282b
208b
25c1
8820
aaf2
2c71
2673
a5da
a3d0
a6a3
2403
a8cc
28d4
22ce
a1b1
a950
271c
2835
ab13
a6c6
a632
a22c
aa20
a231
a54d
30cf
a63f
a856
25b0
2a3e
a856
27d0
abe8
1e72
a741
a5a6
a831
a75c
a4c1
a214
a340
aebd
aafa
a5e8
ab9e
2066
28ab
1ba9
a0b9
ab2d
231e
1f7a
2379
a8f1
a4e8
a1c8
a324
a79c
abac
14a6
0d70
2801
1fe4
21a0
1c49
1c93
a2d7
2a07
26fc
29ca
a086
23a2
abcf
a92a
2db6
a901
9efb
a898
a7ba
ab62
add1
2086
acd9
a903
2404
2dfd
929c
2e4b
acbc
273a
2916
2014
2143
a410
ad6a
2a96
2d0a
18e1
2d0f
27a4
28b8
94c8
2254
a6b7
2899
aaf3
25f9
245f
223e
2c0c
2813
196a
294f
2b40
17e4
2c40
2997
a9a0
25cc
23dd
2ec5
9ff0
281e
2893
2c36
a175
a910
