ae2c
b417
b1c3
b36f
375b
3aee
3b52
b142
335d
1dc0
34e0
b48b
36b6
30b2
b8ce
a734
af68
353f
36cf
b5dc
34b2
b388
2c3a
367e
b444
a95c
b986
b9c8
3a54
322a
b9c2
b4f8
a8b8
ba39
b552
b81d
2582
2e1e
376c
3059
ab5e
38f7
b9bc
3039
29c2
34f8
3269
399a
b684
b5df
b832
3572
3900
af00
32c2
345e
b30c
347d
b604
2f79
3ae4
b3fd
b5cd
3b9d
b5fc
b3a5
ac8d
3940
365d
38cb
b808
3682
ac54
341e
b18b
ad5b
b943
2c3f
331b
b890
3919
342e
384c
b4b1
b13b
322a
3425
bd02
ba07
bc7d
b6f4
a80f
3a62
347d
ba5f
b7f2
b630
b8f4
39dc
3913
b8f1
b77d
b82a
3897
2cc7
31a9
b5b6
b047
af76
383b
38c7
af86
3224
b1d4
bab2
b850
2e5e
aaee
9fe0
38e3
b70a
b417
10e0
b045
b40c
3577
ad76
36cf
2c6a
3934
bad9
bab0
3800
a9df
33ac
b200
3713
a492
3605
36e7
2d4a
b91b
b253
3d2c
ad7c
af28
3308
b1e1
a692
b72a
35ff
33ae
3118
b914
388e
b3a2
b0cc
b95a
bc83
1774
2f43
b6f3
315e
b7ba
b934
b366
b02c
b496
a976
a988
353a
342b
3113
badc
b142
2c40
36aa
3749
b66d
2c59
b74c
3366
34d0
b178
3a7e
8c80
3a67
a0bd
3906
30c3
3488
b97b
a384
bb7c
32b6
a9a6
b303
343c
37bc
312d
b4b5
2927
3138
2ff4
b4bf
b80a
baae
278b
3cab
b9fd
b9d4
2cee
b442
3ab8
b766
b090
ad73
b6a3
38f0
ac01
2f4e
ad1b
2540
b1e5
b0bf
afae
34d1
ad13
3a0d
b662
3839
a820
b5d6
385d
b856
3ac1
38f3
3736
b998
aeda
ad69
2b44
adbc
36a0
b806
b160
ae38
3022
b5af
b922
383d
b8e2
ba9d
b7e6
33ee
3600
ac90
ab90
3c8d
3867
3a15
b63a
b737
b523
30cb
b938
37a3
2dba
ba0f
362a
3aa4
bb28
bd86
3861
335f
b3dc
37c0
b7f7
b13b
3bf5
3ad8
b241
294e
9d94
382b
3c57
b74c
b751
365d
b8f3
bc27
af1a
3062
35de
3887
3e34
387d
b580
3a97
2eea
37c7
b945
3450
b677
3320
336e
b2de
2fb7
ad19
2dba
35c2
b69a
b424
b4fc
2f61
2474
313c
b005
a6a8
ac84
3192
a88e
b6ad
b34d
ad23
aac0
b8e8
3995
b19c
b7fa
303c
3cd6
b45d
3390
35b1
36f2
b575
afc6
3c09
b47f
b291
bbe9
bef9
3716
b8d7
3abc
2ca0
30f1
31ba
b974
b27e
3481
3882
b5df
bd17
2e9d
238c
2bb0
3405
3056
b7d0
3880
b65b
ae70
a750
0c10
2ef6
1610
b9d9
3540
bd25
bc10
b13c
b7c9
a877
b4d0
39e9
b800
a65e
36af
b8e3
b604
ae84
300c
b927
2c4c
3cac
2eef
b80a
38fa
3483
3b0c
b73c
b472
b811
3186
b742
b442
38bc
32b8
352e
aeae
309c
27ce
b36e
b7b0
b1d4
b598
3669
3538
3925
1e02
3122
2aba
24b6
b31c
b592
b89c
2c25
38ad
bb00
3ab0
b298
342b
3653
bc08
b621
3838
3765
9dac
b60d
b119
36e1
bc58
3414
37ba
33b8
2f0a
3361
2db7
38f8
30f1
3465
2348
3817
2ece
36f3
b6f4
3484
bb1c
38c9
344e
307e
39e5
ada5
b62b
336d
b290
3284
b534
b5fa
ba0a
ba82
ae11
acc2
a91a
3b5c
329b
2d39
b187
a7e9
b887
afbe
3c8f
aed6
ac32
b36c
b528
3428
acb1
b73b
356e
397c
2f55
395f
a09a
3408
3634
3693
b109
b5b3
ac03
b4e4
34e9
b977
352f
2cce
3091
344c
31b8
353c
bbf0
b200
afca
b4e3
3684
ad58
b482
b2ad
3295
2e59
bac6
b897
a332
b6a9
31fd
ba14
3039
36b3
b89b
ade8
b709
35cb
38d4
b66b
b60a
bbfd
b202
b9e3
a5bc
36e9
b72d
3ad0
3813
b87e
b2b0
b802
1700
3b28
36e4
b15e
b90b
2f94
3852
3b79
abe8
39e6
b47a
3b08
bb09
3a74
b324
b5a0
bb12
b9c0
b151
326b
af4e
3190
b8d4
3195
349b
2d3d
a076
311a
b1a0
36bf
37c7
b131
2e9a
30b7
aecf
3777
28c9
b966
b5ee
b85e
ae31
39ab
2be4
ae14
baec
b5f7
b0aa
364c
3214
2e59
b24e
b8d5
1c38
b6a0
25a0
b8ee
b37c
360e
b986
b289
3468
b74f
b912
2a31
b53a
aa73
3c22
af7a
3751
39ee
3727
b92e
3812
3717
3682
3488
b42a
b92c
2d49
3503
3af6
2f4b
b8a6
b06c
2844
37be
3b3c
3588
ace9
afa3
a832
ac89
a474
bc0a
b053
bd23
373b
24f9
38fc
b890
37f6
b6d8
b167
bb60
3b03
3325
b125
3190
bbbc
371d
b889
248c
380c
b635
3087
b505
2c22
8f80
b023
3410
2ee7
b4c5
a80a
2efd
ba06
b506
30d6
3c38
bcca
b208
b8ed
38e1
b76c
3a38
a6f9
aee6
ab91
30d1
abda
3874
b91b
b044
b70c
3824
b7ba
34e2
3995
b950
b1be
37c7
b97f
3618
b4b0
37b2
a16a
25ea
b329
3cd0
2c32
b570
b527
b94f
3d52
b4ac
b6c8
b8c3
b41c
b83a
b8b4
b42e
326f
bb41
2cb6
34fb
375c
b12d
3c02
31c7
3b71
2dbd
8a00
b1bf
b82a
25a3
3598
3475
38d0
2514
ace2
badd
380b
361c
2df7
3526
b171
b545
3356
2c56
1b60
b6d2
baa8
b716
384c
b362
b4e0
b9d1
b807
b32f
357e
b5cc
b774
b121
b8f9
3458
3108
ac5e
a126
9698
babd
b9d3
38ae
ba6d
a7b6
3597
b89a
a893
a514
b4c5
aedb
364d
3638
ad6c
af80
b6e5
30fd
bb07
364f
30e2
33a1
3884
3be0
b02a
2c50
b0d7
30fc
39da
a3d0
3884
3808
36b6
3989
37db
baab
35f1
b4f3
3831
b1b3
b873
3b12
3394
b936
b750
34ea
252a
347c
b4aa
337f
acbf
b8ee
a6b3
ba74
39d3
b262
b2c2
b80e
377e
38a5
b521
3858
b8ae
b17b
33fb
af03
af54
383f
b4d6
acdd
3b3e
b16d
b806
b024
bb73
3c5d
a8b8
34fd
3200
b978
347e
b2b3
b515
3121
3733
2340
2346
ada0
b8a9
3700
b768
3777
bb79
b851
b85e
b197
b549
3342
ba77
2a0d
36cc
2d81
b85c
b5cc
3b14
ba30
2d56
3a20
3bd4
bb76
3684
ae44
b507
aedb
385b
3316
3900
b636
3414
3199
b878
2565
b907
a928
a262
b63e
b27f
30ed
b5b2
b48d
3693
b8ba
a770
afbe
3879
b421
b93c
35de
380b
b52a
3855
3280
b703
3bec
b24f
29e1
ba72
2d52
bae8
3c95
b71c
3601
38d2
b6d3
b8f7
3211
3592
3a03
2836
3909
b558
3a39
31a4
35b0
3767
b9e3
2b1e
39a2
a551
bc4e
3782
38d5
b48c
b086
2d83
b209
b95d
bd76
b5b5
3040
3917
ba44
ae20
3234
2f30
314c
3135
3559
301f
b752
9d84
3c94
2c3d
b963
3557
370e
232c
b6b0
b1af
9fd0
331b
b771
b50a
31ad
ba2d
38bc
2c36
3838
b332
3290
3854
b77b
b656
b53f
2e17
bc75
2672
b62f
b593
2874
b319
b4b9
bab2
3293
3b9f
b66e
b371
9d04
bb34
bb87
38e0
391e
34f1
2b1d
b9fb
b706
ac79
b7d6
3777
b2c7
b78b
3262
b36c
3834
bac4
b5d6
b4c7
3b4b
2ec9
3954
b0b7
b2d3
3802
b9a5
3a0e
347f
360b
b700
b313
2fef
3802
a6b2
b916
ae2e
ae69
3162
37ac
214a
3409
2fa0
aebe
a02e
b2e2
b828
afea
37e4
3643
3510
353c
39c1
b8d7
337c
3ce7
b404
b6fe
3c84
34c3
b859
35e7
b8ce
3cbc
35d7
362f
329a
2f0d
34b3
30db
30de
bb8c
bb34
b7a7
bb82
b9ea
3a4e
3839
39d4
3a38
b493
326a
b8d7
b8b3
2cc9
ae63
af28
b533
37d4
2cac
b37a
a53e
2f0a
bc51
b6aa
ba5f
349d
a9d8
b18b
3519
34df
35d8
b841
b69b
b61f
b5d4
3857
3ce0
b6e9
b21e
b30a
b1dd
328b
b997
b750
32f5
34b3
3657
a474
b79f
3675
b6c3
ba92
3840
ba59
304e
b206
a08e
b204
b639
b7e4
39df
369b
30fa
3820
381d
b90f
bae0
385c
3836
308c
3149
af7e
311d
b6d8
b683
3a9b
be1a
b06c
b461
b1a0
38e8
3920
b0b3
340d
336e
b47c
b97d
b8e9
b631
3a4e
b3f3
3c4f
b449
3b1d
b42b
36e8
b13d
b959
b5d5
bdb8
b43f
3206
380e
b12e
37e2
a8f2
a82f
b2d4
3889
ba19
3515
aed7
3b66
3026
381b
3896
2afc
34e2
3142
369c
3801
3a6e
b015
adbf
b4ae
bade
b822
b487
3632
a9eb
3253
b966
b831
3035
3af1
bb64
b75a
3227
b58f
391b
b4c3
b44a
ae63
b154
323b
381c
3513
3656
3451
ae3c
35e3
bb36
35d9
b88f
39f4
b507
bc2f
bd14
3159
b071
ba79
31e2
28de
2b70
ba76
b578
3a92
ba08
3462
a77e
3056
3855
33bf
3aa9
332a
2e59
b55c
b949
36a9
2a84
b376
b42f
393c
3930
aac4
bb90
b6d9
b01b
a15c
b2bb
3779
b276
bb2d
364c
adbc
34bd
3aa3
b4c7
3880
3146
b521
390f
2c39
af12
2c21
b237
309e
afa9
347c
2f22
b4e3
31cd
bb65
bc13
b18f
adea
3317
34ac
3c48
322b
b0f5
a314
3103
b98a
22c4
35d1
b54a
b440
3938
286b
2e79
aca0
34fa
3b69
bc22
b765
b97b
3b61
ac2e
361d
2e52
b243
b9f6
3901
37bf
3742
b295
b8bd
383f
b752
3948
b3ca
2dd7
b431
373f
36b1
b0b5
31e6
b303
b14e
b9f1
39b2
b02b
3a4d
3160
38da
2d63
34fa
bdb9
ba29
b984
3641
b063
3668
38e1
35ee
388f
b4f2
b357
386c
ac31
34cb
bc52
29c2
39ad
373d
b57e
2e88
91c0
3862
ad99
34ae
b2e0
27c1
bc69
ba0f
bb51
30e1
3455
3895
b8d2
344e
b5b4
b435
b92f
b25e
329c
bd29
3389
b1d3
ba45
343b
bc8b
3476
30c6
a7c0
b9f5
b259
357d
aa10
b8b8
33d6
ba51
3964
b937
3a2e
3017
b315
b034
ad57
b7b4
adf6
3418
b8b5
b82c
baee
366b
3525
a4f1
3a6c
3926
392d
3d63
b20f
a922
b246
ba33
b333
b3c0
3862
b80b
3a72
3189
348a
376f
325b
3756
b55a
ac33
37b9
b5b0
b97e
3537
2b17
3632
bab1
b36f
3733
b790
a144
2ed5
aeb8
375f
3656
a5cf
b93f
22c6
384b
3262
ad6b
38db
29f3
2988
adb7
3561
3a25
2e46
3737
95b8
bc69
2e5c
b70a
3911
b20c
b0e1
b4bb
a064
2ed8
af26
b434
b19d
aea5
b87f
39c6
b413
39fc
ba4f
365f
31ac
bc32
344f
353b
b486
b4ad
b056
3422
3bb1
b8bb
34cd
38e3
32e7
3bda
b468
b8a1
2e07
b6fb
3320
ba28
3041
b756
354b
b7cd
b70f
30ca
38f2
382d
2ba1
b5c6
2b77
bc44
3907
b663
ba3a
b287
ba2f
3040
b69d
392f
33de
3c22
24dc
b94e
a853
aeec
31db
3214
b6e9
b575
3987
b84d
380c
3af6
2e55
b20b
31f2
250e
b887
3d64
b137
b288
b8db
a35c
3496
bb00
b8b8
3b4c
bbaa
30cd
38b6
bb69
373d
3288
3798
a981
