a156
251d
ad52
b2ea
ac8f
2882
a36f
29d7
a80f
19f5
3476
2ca3
aeaa
32b1
2df5
9c45
a942
378d
ae2e
b8c5
34bd
b428
2689
8d4a
aa23
21d0
2dd3
b51d
3489
25d9
30d2
ac53
a3d3
ba3f
29a3
2d08
9e11
2a1d
3a1c
a8b4
9d1f
10ee
ba87
a672
a110
2ab4
2fcb
ae1f
a710
b45a
ac60
ad03
319e
9e86
32fb
ac7d
2962
27ba
2e86
31b5
b219
2ada
ac1e
b011
aa58
b1d6
9aef
b1c8
acf4
3200
abbb
22bc
20f6
ac8f
a919
a9e2
2f19
9f22
a9b7
b6da
b182
aa43
335f
1871
1b1d
2224
2ca3
986d
31fd
ad5d
265e
a48c
b0bf
ac7a
b6c1
26f4
2aa5
ae13
ac3f
a8c7
bb13
acd0
2e4f
9f31
280c
229a
b2d6
28c3
9863
3086
a8c5
a8a4
2624
aa19
b5c9
2e9b
20f4
a045
1435
2939
b528
aed3
0000
28ae
a80b
3088
9f31
a792
24fa
b048
339f
32af
a2fe
a2bf
2c10
a321
3301
8881
a987
af8e
184d
af91
2a87
2b6a
a3fa
acaa
2208
2856
1d49
ac28
25ba
ac19
a917
b62c
35f3
b168
27dd
b46a
bf5a
10eb
2a52
2b33
a09c
2497
a989
2985
a9df
a96b
11c6
9661
a40e
a5e4
3132
a190
b616
a2a6
2d3b
af13
2c7e
2b4b
2f42
2d5b
abb3
abdf
a932
84f8
38f2
1914
b192
24d3
29f3
b951
a134
aa99
a925
a3a2
ab76
3400
30b5
1da9
2c2a
258b
a41c
280d
a013
3079
bb54
9833
b4a3
2de6
afe0
20ca
b10d
a64f
b0de
128d
2611
2a5b
a806
23ef
a596
a60a
9a0f
b150
276d
2620
28fe
9f83
ac60
b499
0000
2091
2dee
a150
b893
b375
a9cc
2fe1
bcab
2658
989b
15bf
24c3
36c7
a9de
a1a8
a50e
2ae3
9218
2ab8
aca8
3158
3295
b8fd
ab4a
a9c4
a1b8
a30a
3b17
a934
386c
ae86
b1cb
af8c
2416
b6cc
b029
1a2d
2d0d
24c2
2b2a
bd10
21d7
afc7
31c5
2ad3
aff0
a2f1
a0e2
aad7
a89f
afb1
221b
0d87
aad2
b306
a9a1
2a0a
ae93
2b6d
b345
2480
226d
30db
329f
b6e7
25f8
b30d
ab56
a106
29c3
b825
29c2
adf8
a8cf
3156
2ba3
a73b
9517
a3b0
2c9a
1ffe
b22e
b5be
2839
9cb9
2ca4
2807
14ee
204a
a1fd
a6c2
b81f
a88b
220c
1d30
3088
377e
9b9a
2ccf
1222
38bd
ad76
aa42
258a
348e
2b03
a5e4
3882
2ce8
27e9
ad61
ba25
afe1
283a
3a31
2c7b
2be8
28de
b39c
245c
aaeb
2c57
b458
3360
2889
1917
298b
308b
29c6
2dbd
b064
2075
a407
9bd9
0000
a6e1
8cd4
2dad
adba
2c49
340b
29a3
a2b6
a618
26a6
2d80
2e07
a67c
a83e
aedb
ae4c
2709
a03f
2b95
252d
b4ef
2a59
adde
aeca
ac93
aecf
3001
a985
b128
a918
189c
b2df
394f
29b3
19b8
23df
2bf8
0000
b510
2fda
9b8c
2cd8
93be
adb0
361f
1adb
9c69
a333
2218
a465
b03f
1f75
9d61
b12c
3069
b2e2
b43b
aca3
a9ac
b21b
2d23
ad68
afb6
116f
2d94
29ac
3209
33b5
ac7f
b03b
2bec
2500
a74e
a17e
2d33
9c5c
abe1
9c0e
2bd1
2302
acad
2cf7
abe0
b69f
b056
2b33
a88b
2a63
ac8f
2df2
9a80
2718
10ab
2dc9
2d5a
32b9
ac3a
a88f
a5c8
202c
34c2
a9e0
a54c
28a0
9e8d
af5b
a41c
31d7
23e5
a1d5
289d
afe9
2d63
9f67
29f2
aa98
305c
239c
341a
9ac1
ac75
ad83
35e3
af19
2af9
2239
ace7
30b9
2bb8
28e5
a3dd
a285
33ce
2bdb
ad69
b477
20f1
20cb
ad53
ae5c
a0d5
a96d
af32
2496
293c
3021
30c4
a32e
2f65
2ee5
ae7f
9da4
2a6c
a8ab
21a1
b5e5
30f6
3184
2ef8
2902
bd13
280c
31fd
9152
3820
9d08
324d
31f7
a782
2b4e
3076
14ad
2f41
2c42
a109
2ee7
a082
b03a
3901
2453
ad91
a9ba
3603
3058
b2c6
261a
2ddb
bb4c
325f
a41c
3701
9f21
29ad
affd
a4ea
2c03
a53b
9b71
301c
1d11
2c43
b04f
28da
a717
319b
a8d8
341c
a13b
b108
2d95
a233
a92a
3036
276a
21f4
b487
a9f4
2882
acaa
305c
25d7
263e
30e7
1d53
2e31
92ae
adab
b574
ada1
bea2
ac9e
3075
b5dc
b833
a13a
a5df
1b1d
2b74
1a37
adf7
b216
af10
b950
3939
afb4
af3d
ac9f
b6ac
b7bf
a5df
2f3e
33a2
2942
2ef5
28ce
991d
39a9
2e04
2967
153a
a1e9
2093
193d
9861
b86c
2833
30e0
ac34
8a7a
384d
2abb
3723
2eff
aa64
3238
2da9
28c4
a474
a54f
b8f9
2d33
b0af
9c89
b011
b2e9
2d76
2d75
a2ba
0741
a96c
a58a
2d59
ad65
9d0d
2417
b428
ac41
a87b
b3fb
309a
a68c
b86f
ae74
ad95
3499
1e2d
a5db
a3f7
301c
9781
342f
2e24
2751
2cdd
ac1c
2bff
34fe
b1f2
2cd0
2056
b012
2607
3114
b602
2d87
975a
98a0
2943
312b
212a
afcf
b286
a960
b4dd
ace9
25e0
2d93
a888
2f25
aec2
2b3e
a91a
b5d2
90dc
31d9
2fdc
a9b3
b28b
a89c
b424
2108
0000
a9f8
3094
1bcc
ac0f
34a4
b126
1685
23ba
b1c6
ad9d
ae79
2b15
3286
a506
9e34
3130
2a4a
1925
b073
2260
b1f5
2d5f
b512
2039
b76d
2f01
a42d
2e15
a65b
b5ce
b39b
a053
2642
a65e
1831
18ff
8d26
c054
3164
3231
32c8
a1b0
ad56
30a3
a9ab
9571
2c1a
2227
2e44
306e
1ba8
2419
2d30
2c18
21b2
3117
0bb9
2b0c
b106
392c
9cad
1e5e
aa84
a909
3443
a060
a659
ada9
2c42
3117
33fe
3156
3141
272f
ada8
25ee
2d80
b04b
a6d5
a661
2db2
2d14
9c21
ab58
1a50
256c
a6d8
b6d8
1df0
32f9
b246
2ad1
b100
2e37
2abe
33c0
b76c
b0d5
3061
2882
ac4f
a83d
268a
3129
b4f6
941e
3026
29fa
280d
2893
9e49
2b54
2126
ac93
a303
b09a
3433
a82a
b635
26bd
250d
1d48
9c0b
9924
30fc
adf1
2f8e
a016
b246
ba32
17b1
251c
adc1
a9af
b374
256c
2c3e
a4c3
a85c
2a32
af78
b21f
203c
320b
a6c2
b7d5
aef2
21c3
b405
26aa
29a3
3438
adb6
2e74
1cf2
9840
2c9f
1d54
0925
2095
a1ae
ad93
acdc
28e9
a01c
2d0b
2e20
2f68
1d59
8e17
38ee
b4ea
3152
ae4d
3586
26a6
b0bb
aafe
a8be
2637
b372
960e
2b0e
230e
2c7f
b36c
2dfc
242a
3557
b06b
ac6d
aa7b
ac2a
343a
a0b1
b0ac
ac7f
b0b8
3079
ad3d
2e17
ad17
a186
3b42
9c01
3476
3644
ac3f
1ca9
22f3
a54b
ac92
296f
a10e
a433
2c6b
37d7
324d
26d3
9dca
a737
0a2b
3108
a7ea
a51c
a448
15ce
b49e
1e56
31fd
16fb
af94
2019
2d3a
ac31
9788
221c
2ef4
2d75
2df8
32cd
9b30
980a
ad22
2b9c
a843
2fb0
af97
b465
24df
a2d5
bb2a
14a1
2ed1
a33e
1caf
b0e7
2c21
3017
a782
391b
b6e3
b439
11dc
b2ac
33bd
3467
b12d
a814
2808
af9c
2fc7
9a4f
2226
2a0b
ae99
a621
a95e
9cd8
a9f9
b20a
ae40
2b50
2542
a6f5
2c38
1da2
2891
aa44
2ea5
3a4d
ab75
ad5c
2f05
b15b
a6c9
aff3
1e03
17dc
a0bb
253a
a946
2de9
9324
a84a
a829
25ba
9957
2884
a0e6
27cd
b03c
1870
ad68
3546
a997
b09f
242e
b55f
2b5b
aefd
328f
acda
30d0
2f5f
2953
2da9
25ec
3017
2a51
a25e
31c0
1d7c
a833
adca
2762
b4d9
3422
2fdc
aa8b
30ee
2f86
ab24
aabe
aa42
2dbf
b5ec
2c44
a638
2456
b681
18ed
9e04
a78a
1940
a1ef
b091
ae1b
2dd2
295f
2022
ac51
2d99
abc4
1e10
b3c6
2f58
2db7
aa0c
321c
b03f
b690
2a61
a026
1ecb
3060
2d1c
ad5f
2d10
30e7
3362
9494
2f6d
1c58
a491
32e5
aebf
b21f
30fd
a0e8
15db
2402
abaf
2e98
ad49
3895
2840
30cb
375f
a025
bcc6
af6a
30e0
a4fe
a44d
a978
a07b
2950
2a11
341b
3542
a90c
2cc3
297f
3dc9
ab13
2083
262f
26cf
a8a6
3218
bb69
2cb4
aa00
29a0
b3c3
2ac9
ac94
b336
34ec
28ad
3181
b370
3470
ac1a
2b01
31da
b072
aef8
203c
202b
2b49
1f98
b7ac
2c85
279d
b409
2d3e
acfc
38bf
0d97
36aa
a0ac
3935
358c
265d
9e7c
2413
a1c7
b044
8fc1
aeb2
acab
a587
a569
b0a2
bb11
2c6e
b359
2de3
a60c
a5a6
b531
afd3
ac8d
2416
aa84
9d62
aaef
3269
3770
31d0
3103
a6d0
2d16
3403
9ca0
b342
2fdd
2d96
344a
33a5
a5b3
b45b
b0b2
9e0f
9edb
2821
b5aa
a59a
2ba2
23a8
ab5a
a44d
1765
a220
9e10
a934
aa38
242b
2df7
b325
a58d
299b
2b3b
26d5
a3ec
2a14
a407
30b2
2d25
2862
14c3
2b2f
a313
a6ed
33a3
2c5f
9e32
274f
3375
ac55
3350
a366
b466
ac9d
a480
22e2
1d4a
2a43
9afd
2819
a4ef
a321
2c3a
2bf4
2cc7
b502
a801
9d16
280c
2c6a
aadc
2fd1
b05b
a340
9f14
2fab
1587
2c24
2dab
b0b2
3094
25f8
a724
2506
ad86
2bee
a887
a93b
ae92
b3a5
2464
ade6
1f69
21e4
b6d5
34e3
ad93
363e
b3cd
ad9c
ae5d
2941
263d
a4f5
a172
a883
a86e
2ed5
212e
3006
ad71
a900
2e35
322d
a933
b174
2f89
b07e
2218
a868
b0fe
2ae3
b30e
3240
add2
30fe
33c1
acec
b099
a235
2bf4
390d
224e
2c74
332d
259e
a574
305d
b753
a6c4
04e4
ac1a
854c
2ccb
2512
25b3
3483
ba57
3175
26e0
a0db
327b
30f0
2fa3
b56f
2b29
af83
29a6
3575
3327
ac30
2724
2c03
144b
b736
a81d
20fe
1e98
323a
220b
ac83
228c
304a
2e57
2cb2
3b5a
b00b
afff
282d
a54f
a808
a988
302d
2698
ab36
298b
b417
3344
2cc8
ad49
a18b
b235
2dd2
ae99
b29e
b077
2040
af79
2e48
24cd
abba
a83e
2d33
b261
2c6e
2dc5
b00e
26d6
a86a
a2e3
a88b
3042
b666
b5a4
300b
1943
ac3e
b464
2aa4
ac76
2fea
988a
2210
ac3a
2f6d
a909
a449
269d
1be9
2c60
991d
22ff
add8
99cf
215c
a2db
ab65
310d
0a4f
344d
0e5a
273d
2c6b
b446
2b2d
b14a
a432
2d44
1680
2e3e
a78a
acea
a9c0
a63e
b340
34b5
2bb7
2edc
2bd4
a980
290c
317c
9e6b
24f0
b4ff
b2ee
a3e9
ac98
39bc
2ffc
abb9
a8ea
a45b
3c66
b2e2
a864
2421
266b
ab2c
2d04
2a15
27f0
2c1b
b4cc
2e8b
a954
acc3
3b72
a017
aa98
28e4
34b1
3424
2abe
a60a
2a1c
301f
301e
b404
28aa
2dd3
32a7
94bb
319a
9f88
a9df
a531
206a
1953
b4d7
2b55
a733
b077
b3be
9d40
b172
2f36
956e
301c
b5fe
28ce
2ad6
b48d
1a10
a931
b15c
b9a7
39bd
b6e8
2376
2bbc
33d2
ae4d
a4e5
aea8
9c6b
