a710
3192
2c62
240a
337c
2aba
2ca4
2d40
adcc
3008
2046
3197
97f0
2db4
1fb0
a43d
2970
ae78
b14e
328f
a5f3
af19
2846
2c38
ac4f
2958
a40a
b0ca
2ead
2892
a878
2fc8
2dc2
ac63
ac0d
2916
b378
320e
abdd
a92e
2caf
2d4d
ac61
2960
2cd8
af19
2320
b00e
ae5f
2da9
12b0
239f
2ba6
2b92
286f
aa4a
a657
ae74
2fcf
2ba7
af1a
2b64
a97d
acd5
a580
a905
2df3
2b50
ad88
1d20
ab34
3023
b281
ac82
2b1a
ac54
301b
9cd0
281a
a0c8
2f98
32df
30b8
2dff
a999
3273
2e7a
af76
317f
324d
af14
27ce
2c04
aca7
a350
ae16
ad74
2e09
348a
afbc
2b5a
335b
b132
b47b
2dcf
2f08
253d
3420
b2df
3119
33ba
2b60
307f
29a2
affe
2e96
3472
2c9d
2487
3152
b262
31bb
2ed0
2fdb
349f
3109
2bb4
2efb
2f71
acbc
3381
2de5
a9bc
2b9a
a5dc
ada9
2e1f
3391
2496
ae00
2b4e
b19c
30e1
3009
afe5
3313
2fdc
b079
a8f7
2b30
af46
2fc3
2e5a
af53
b0cb
3137
306b
2d8b
2d3a
a118
adf2
32fd
b0c0
32e0
3456
3037
201c
330f
b0b0
a1d4
33e1
af6b
32b8
3077
a72c
34c6
34b5
af3f
27fc
a708
2dfe
3335
3222
2e94
a502
2e8d
305c
23f8
2982
311e
3372
2b8a
b200
af38
358d
2c50
24e6
311b
2d37
2a7a
30f6
ad04
2ed0
2ea2
b1f9
3244
2608
aed3
2d60
3110
2c5e
30cf
30a7
ac3b
2fd1
31e5
b1f9
33c5
321d
ae0a
3411
28dc
244f
b229
31da
af06
2fd6
34f2
b564
3211
3193
30e3
3126
322e
acea
303c
2ee1
b20e
2e23
30ed
ad2e
2dea
31b8
ae95
aaac
34ce
a9a8
30f5
3533
a84a
2ab6
2f2e
ac22
ad8a
2c5a
2b74
3198
325c
b35a
aeb3
2f24
341a
3092
28f6
a98f
b472
29e7
326e
30ec
aed9
ac2f
352a
2560
b21f
34ae
3157
b1a1
29bc
31cb
2618
317b
3292
2214
30fa
3071
a075
30d7
2c35
a8be
3191
3472
af02
34e5
315a
2b32
2b5c
30e3
aea8
2a98
2bc6
acc2
3207
209c
3270
b43f
29ec
ab5e
2a2e
30ba
1540
2f60
2cde
a054
33ee
3592
b40a
2736
34fc
2ffa
a980
2dd0
ab5b
30d8
34b8
1908
b041
2f75
b228
aa36
2d8a
ab84
3431
2b25
a050
349c
3196
ae86
32e0
2c42
b3bb
2daa
2974
b0a8
2cb8
9ca0
b081
b2d4
31e5
b0c5
ae04
319c
2a4e
333d
2deb
b58e
3021
37be
b101
325c
ad08
aa7e
2ece
321e
306d
307b
2e33
2f66
2e7c
3464
2cb6
b039
314f
a450
2e0d
2ff8
b39e
2674
284a
99b8
3260
261a
2fce
300a
2e56
afcb
a592
33cf
b152
2d1c
34c3
afca
34b5
2dc0
2af4
2b4b
9d50
2504
35ad
32c0
aad3
3582
30b3
ad33
2f88
a5b4
2cf8
2e9c
3181
ab05
2c74
3566
a8d6
3112
aa6b
2bf1
3398
9fd0
b096
2694
2cee
b22c
301c
2674
3102
a88b
aef6
30ed
a521
3326
ac60
3210
2d1b
ae1f
2b54
303d
b029
30be
33d8
a0f2
32c4
ad13
2bf2
2c98
24ae
1500
ab5a
3455
ac9c
2caa
3040
2c83
a6c8
327f
b4cb
b157
3207
b166
a698
a6d4
1c10
2e67
a116
2cde
2f88
340b
3017
232e
21b8
2fd4
2c9a
3224
2e33
31ee
2a0d
93c0
aa92
30e2
a3e8
2d93
31a1
35ff
301a
31a4
2f1c
2e2e
27e6
2b26
2666
2c18
9ac0
2f63
35d8
af88
31b1
3332
af3e
27b4
3791
b0de
3231
3292
2394
3476
31b6
b16c
2e30
33f4
ac98
3683
30bb
2868
2df8
3130
25c4
27c4
2816
b5bc
1ba0
28d1
b069
3070
2854
b09d
acbd
315a
3309
31e7
30f0
aa9c
3005
311b
af4e
25ee
3243
b030
a04c
3420
b145
27b1
340a
aceb
3160
341c
3137
312b
31aa
a050
35b8
32c7
aa67
2428
3398
30c5
3307
2b94
9b38
3142
2bee
acb4
3373
302b
2d73
304d
32d7
a88c
a9da
aa16
14e4
9980
3037
b283
2e6a
2300
2e5c
a998
30af
