312a
31d9
2341
bc7e
3652
3530
ad0c
a85f
b5ab
357b
3059
349c
2042
b6cc
a854
acb2
b1b1
b178
2df4
b150
b042
adb0
31ab
b314
aedd
370b
387b
a596
b65f
333b
b032
319e
b5a2
2f8f
b3bf
ade3
3708
a585
3625
af52
2860
ae84
308f
b7a3
2f5e
2e48
36a1
b0ff
aca5
b494
ac71
aa71
1dae
a8ae
3865
2a84
3acd
b161
af2d
a898
b5b0
b6d5
34b8
2f7f
b22c
33c1
b218
3300
b0e1
b44b
a25a
b0da
2d21
a81d
245e
2fed
3874
ade7
385f
3098
33f8
3116
a60f
ab83
317b
2ce3
b9cd
ab0c
3800
32cb
39e7
3412
b420
b048
b0fc
2a75
3668
302f
b8dd
33f5
b045
b466
3788
b230
b3bb
322f
b034
b80c
30c2
2c9e
9d98
2f3a
b437
2f10
3366
b679
a793
b50c
b084
28d1
3724
337c
3363
2cb2
365e
32f1
2e94
b0e7
af00
b76e
ac8b
a52d
3823
b5d1
b0a1
b589
32a2
2c75
2e53
b524
355e
297f
af48
3643
3341
387c
a459
30ed
b158
b2af
30e8
ac54
ac0c
2edc
ae04
3896
2836
3120
ab46
bc13
b0cc
3815
2e34
3743
b9c8
b42e
3908
3016
b4ff
37b1
b1c4
3080
2e35
3737
b702
b598
38c5
34fc
a93a
2b45
332b
bb33
b51a
3435
b113
b73f
b40a
3903
9c06
3203
3702
b610
