324d
b178
398b
3cd5
b61d
2d03
a821
bd6b
b545
3a15
3cc6
badd
bf8d
3ec2
b61d
3432
3877
3ecf
b95e
3f83
3d27
3d87
38cb
9686
34fd
bc24
b4fd
395a
3880
32dc
b8af
35e4
3913
3d21
b505
b603
bdce
39e9
3f94
bc19
3126
17f0
3da9
b810
b914
34b6
3aea
b537
3014
3c0b
337a
c02e
3757
2f11
3d3f
bf1d
b812
3246
bc22
3f24
b922
b8df
34ed
b512
3396
3c24
2dd5
bc77
c0e6
3805
32ed
2c04
b589
bca6
362e
3a60
b6d7
b3a0
b866
3c16
bc13
b7ea
3938
a3a2
a990
2f88
374f
1b10
ba6c
3078
afce
3a7b
b7d5
ba7a
3a33
af6f
b51b
3453
b273
b005
3ec7
3483
b805
a659
392b
305f
3ad4
bd4b
28a0
3709
b048
37f2
3332
36e8
3940
b816
31b8
3458
b513
3006
3c02
391a
aca3
bdf2
3331
3914
30e5
b0cf
375c
b88e
bd31
bf78
ab32
377b
36fa
3072
39dd
23d4
b43b
bdff
2a5a
351e
bb0d
2d80
3509
3b4f
2e88
b7bd
b866
341e
2f3c
bbc8
ba82
3aea
3b52
3bce
b887
390e
3f84
3834
3948
b4e3
af4a
acf2
3002
b7dd
386f
342f
a84e
2c75
ae8a
b245
3d36
2668
4103
b837
3562
ba1d
b72d
3c75
ba71
388a
b85d
3884
aec3
373b
3c2e
bbe8
bcb7
3348
3499
3cff
3baa
2eb4
b817
3849
3702
3ce5
37db
2c3c
b921
3a45
b316
36c1
2ab2
bda2
3d80
b0d2
ba6e
c274
34b7
3303
3ac8
abc0
3831
a1c7
bd2f
b472
aee5
ba63
b814
37aa
b595
3cb7
b838
b857
336f
3175
b26f
3be9
8840
bca6
bac5
a8f8
3d56
bdb8
b117
372a
3faa
c026
2aa4
2a2e
b89f
3d35
3162
2fef
358d
3919
1c48
b1c1
b540
bdfd
ba73
3e25
b97e
b477
3469
363f
3c35
b124
3bf8
36ea
38f2
3898
3238
3b4d
bc38
2c2e
b390
2de8
300f
3eb7
a444
b92a
3c39
b8f9
bae7
2acb
2f14
af4b
ada7
3afb
377d
b03f
b366
b871
31ac
b37a
bf0b
b2b4
35ec
b64a
3169
3912
3894
bcec
2d1e
3b36
b0d0
b277
3177
3c3d
34ab
3633
b6d9
3be4
bd62
b9b3
27de
b6ca
3578
a8f0
3c11
3db7
3774
bea5
395d
ba8c
ae3a
b468
b0a3
3c0c
3e09
3462
b5b9
b2e4
b98c
3b7b
2950
b5e7
21c4
39d1
3805
b898
2f5e
3b58
b668
3538
3a76
bc43
b5e5
310b
3956
bd5d
af6b
3cca
3cfd
38ee
35c6
3867
b1ec
b81a
32f4
3c0a
b78a
3857
34b6
3bea
3a86
383c
b7b2
ba2e
a9be
3468
33ab
b3fa
ba5a
b855
b484
be15
af0d
ba75
bc06
2ab9
3b94
b21c
32bd
b7fa
3d30
b191
34e0
36e8
be4d
b084
b28e
37c8
bb86
3981
3507
b6f0
babe
b47e
bd9d
3460
3810
b986
a11c
3c53
3d99
35c3
2461
c1e3
3941
1c17
3e85
badb
2914
b8f3
9cd8
bc3a
3acc
3a93
ab13
bbd8
3b44
309d
38bd
a68e
b1b2
bda4
b640
bb00
3e39
bcfb
b41d
3537
b8b1
b663
bb3e
b472
b986
bd50
3951
b928
bc80
bdf8
36cb
34ee
b4a0
b477
3380
ab45
b93f
bd2a
32e8
3364
b6d0
b764
b901
3995
b95a
35b1
bf54
3014
3c54
ba06
a71a
b525
1db8
bce2
b93d
bd4b
30d6
38ae
37d8
b883
3822
b92e
babd
b8ad
35a5
358c
339a
347f
b596
34d6
b624
38c3
3824
31ca
b372
b5f4
3572
3372
38bf
3897
bda7
b92c
3cb1
3bc6
b602
b82a
36a8
39bb
b244
32d5
b884
b256
3cbe
3858
bb13
3759
aef8
b160
3726
ba2f
3291
3441
3a48
3129
390e
b5fd
bb2c
3d1b
bd7c
3a9f
33a6
ad96
32ed
2fa7
b46c
3c74
3937
3771
bc29
b384
3e2b
b6d3
bacb
2b39
3de0
258e
3636
3895
2e5f
bc47
bd3a
3b73
3348
345b
2f1d
b6f8
b12e
ba36
3b77
bc4e
b45f
347e
3935
b616
becf
b3c8
bb37
3d3e
bcad
31af
40c5
2f62
36c2
35a3
b407
35e5
ba81
391a
3c52
ab6c
3471
bcad
b9ab
bbf3
3ddc
3879
3a63
bc4b
3640
b9c0
298f
391a
3521
399f
b491
382c
332f
ba0e
b7c8
3be2
362f
b4a0
bf4a
3e24
b9a9
acf1
3415
3ee1
b99b
412b
3873
39f8
3c4d
3c6a
b8be
3038
b0c5
2ed9
aad6
b87d
baf1
ba57
3d38
3e38
bc2d
bd5f
bad8
3f6a
3c14
bd67
3888
372f
3886
b7e6
bc2b
b139
3ee5
3214
330b
a855
31b0
be16
accd
3316
3a5d
bfcc
b466
b5a2
a544
3c8f
b293
3cb2
bade
37ab
b8bc
31ea
34aa
324f
c28d
3b3a
350e
36d4
ba7a
ba99
3a71
3ae0
bc2e
b87a
ba10
382e
b206
3c30
3761
3467
3426
385d
35c1
b994
b9cd
b477
33c1
3cb6
b6a8
3530
389f
b923
35c4
36f1
3c85
2b6f
399f
b5e1
b8df
b70e
b4a4
b4e1
3d34
bbb9
b42a
ae5c
bb52
ac8c
3919
3e37
34fb
34bd
b307
b7b3
33ad
3457
3882
3b24
2fa6
c036
36ef
af5b
b5ae
33de
b8c1
34fb
c075
b84e
38f1
a42a
3aba
3707
3737
b87f
b857
bd09
3262
b034
36dd
bc6d
34d1
b790
3d48
bbda
30c8
b84a
35b8
b71b
bb9a
3ac9
3b25
32b1
28a1
3bcc
3bf4
3bb6
382a
a7c8
3922
3466
3e90
ab22
3b31
b8fb
305b
373f
301f
3c35
3ef9
26dd
3153
b648
abee
ba1c
355c
4179
b990
3836
bb84
389c
b9e9
baa4
3e0d
3009
b8e5
b41e
369c
387a
adec
b536
b7f8
3909
a692
38f7
1a52
3634
bcef
3b5b
2c58
3172
3846
bf56
3890
3a7a
ade5
c149
3476
362e
39ff
b85d
395a
b275
b6d7
b4e9
b618
b5f5
b424
2cb9
b831
36d6
b85c
b885
a579
3158
3886
3bae
b926
bc12
bc06
bbce
3c0a
b817
3289
391a
3ed6
bcfd
b9b0
b88d
bc10
37d0
b935
37d8
3d38
26b0
3412
bc77
b051
bdae
22b6
2e66
be0f
b979
b114
35b9
3cda
3461
3dfb
349a
2d63
3890
bce5
2b1e
be7a
b8ca
bad6
a875
35b6
3ecb
9f12
b435
3725
b839
3780
3969
3465
b8f2
2f8e
b514
b4ff
3695
31d3
3691
ab1c
3a26
bbc2
b43d
3c4b
ba20
30d1
3dde
b583
bef5
28c3
a627
b4e0
3692
9018
b92d
3cab
3606
38aa
36a0
29a7
bcaa
3640
b83a
b777
1e46
3d85
3ddd
bac8
be6c
3b95
b1a6
bc46
bc01
3105
2a21
3dd3
ac43
b0ba
34a3
b1b9
b872
b8ba
2d54
3a6c
3823
327b
bbd0
b7e2
386e
bd1d
b997
35b9
c100
3c44
b984
359c
324d
b82b
3e3d
3531
bb23
3c71
b405
a82b
b2e3
b9f9
38b6
b05a
235a
2da3
3a1a
3c2b
ba9c
bd1c
abb3
ba95
18a8
3cfb
b29a
b61d
2c85
bb74
baa8
3182
bce4
2134
bbf4
3a95
b836
389c
3670
2e8b
b9a9
bc1c
3a28
bdd3
a21c
abec
b5f7
bb8f
b67f
35ff
36ba
3bad
afec
b563
3c4f
2d83
bdc9
2d01
3388
3ba7
b909
b601
c1fd
3b78
3d66
3da6
b5ab
3638
bafb
3972
bab1
b37a
3a8a
3478
bca8
2d6a
aa70
31ee
39c9
2e34
b8b7
291f
b24e
3606
370b
b815
29a5
baee
31d0
acfa
b6c4
b305
b5ba
3d47
b89d
b928
bf6f
3c1d
b8d9
ba66
b945
9e34
31a2
b87e
ba3b
354c
b1f4
b50b
bc3f
b8cb
3817
b697
28a2
bfa3
bbf8
21a4
bbcc
3d25
b028
3663
3032
bc53
b974
36a4
3507
bad3
bda0
3803
b0cb
3079
2fa8
3836
3665
b426
3af3
2c5f
b8ec
31a5
ac3e
3b25
bc79
b6b2
b077
3795
3487
b0fb
3518
ba2d
b5c9
3b1d
3cad
367e
b5ef
3e18
2103
b1a6
3340
b4b1
b3a9
3394
3629
b435
3421
b74b
38d2
3732
b856
2816
397f
bcd9
b9a8
3372
386f
b3f4
3cea
bee9
2c8e
acd1
3b75
b435
3514
388f
3a1e
3aaf
2fc2
ba29
2554
2d32
bb61
b84f
3670
3dbe
2e38
b66a
b1de
345a
b8ab
b422
3e9d
35cb
378c
3cb2
267a
3e9f
b8cd
3787
b540
b35b
3892
af72
b2f7
b44e
37ff
b8e9
376f
bc31
ba33
4117
b21a
b01b
319e
32a5
3370
bcc2
3f12
b809
b011
b74e
b94b
b84b
b1a6
3c91
3bd8
b937
bafe
3b2e
b82b
3673
378e
3887
3c8a
b920
b8dc
ba78
be89
269d
3b1b
3601
bcf0
bc3e
3b21
b5f4
3d41
225e
3e87
af8f
3f51
3bab
2bb0
2e11
b752
2cc4
3461
1780
389f
b7fc
3998
b3cb
35d2
3fb9
3a2a
beab
b32d
2e46
b43b
3cd9
b817
3664
b012
3a02
2bd8
bd05
38d4
3ee8
3984
3aaa
372a
35db
bd4b
a66a
38e9
349f
bd67
baec
b7f7
b50f
405e
3506
ac43
b741
3a6e
3950
2fbb
305a
a92f
c099
3a9b
26bc
a9ca
aa6c
ae98
b8f8
3499
bd3a
384a
af10
3c8c
ba16
b362
aa34
3063
37b5
b621
b7f1
bbcc
b412
bbc6
abd0
33aa
bbb3
34d5
3011
31ac
3756
361b
38fe
b237
3c89
b432
bbc4
b488
30c5
baa2
aa34
bbda
b0c1
b4ad
b8f0
3856
b1ad
37eb
34fe
2e8c
340f
3654
aec4
3b25
3ca0
3d36
aded
c156
31fb
34f1
bbe7
3a68
35ef
3b85
bdbd
bc2a
bcc3
3007
2c3e
313c
343d
bb1f
bb66
ba09
3064
b004
3a99
39cd
b778
3c8c
3dd8
3431
b7eb
b260
2c90
30be
b44f
33b3
b156
36c3
b0c1
3b93
38cf
3650
b4ef
371f
3802
b8f1
3bbe
b991
3406
b40e
325a
b0d7
3818
39e9
3b69
38d3
38e7
b89e
baa7
2cd7
bc1f
3dad
b7f6
363c
b89f
39cc
abef
37ca
3e69
bb20
b3be
b453
1790
36c7
b293
3c05
bae2
3d4d
b7dc
34e5
aca7
3874
baea
395d
3ced
b8ce
3504
c05a
3f99
b719
bcdb
c1c1
b19d
200c
38e6
b440
2fe2
b8ce
bb4f
b011
b88d
bc10
b963
38fa
b2a2
3e86
3554
b677
36c4
3186
3669
3a15
bc25
bda5
b917
b11f
39d1
bed1
3524
baf3
3a7c
bfdb
3405
b658
b60b
3c07
b89a
3acd
b4c2
b1e0
36a0
b024
b66a
ba5f
38ee
3812
bc43
33b0
b13f
2cf5
3a4c
3739
3d9c
3a0a
38ce
2daf
b6fb
382f
b938
b61e
bb52
35d8
3274
3b1b
36b0
b328
3c08
ad42
3794
3352
a67e
b674
b5e4
b02e
3677
343e
b704
359b
1c04
3ace
bd6d
aabe
3bb0
3ae9
313d
3c9b
3245
bd3d
b7c6
3cc2
36f3
3797
36c7
364b
38f6
3902
b9d0
3412
b16c
b3de
3602
b68e
aa1b
2f28
3d87
3c0b
329e
bce5
3c10
b8be
b866
b050
b187
3d98
3c37
2f31
34c7
afd7
baa0
b35d
387e
b0ab
3554
3afb
b995
bcf8
b47a
400a
b518
340f
3b56
bddb
390c
b4ff
2b8a
b9ae
b6b9
3cfd
3ae9
2ed6
38a0
3581
b02b
bb88
35e5
392c
b410
2d92
a234
3ca8
30ee
2e62
bc85
bce5
af06
3cb7
3ae6
b0a2
b95d
bd53
b984
bb54
399d
b891
b574
3545
3de4
3c3d
396f
31b6
3202
bb83
b8fe
b2b1
b90d
31e2
