a47a
2ff1
2a0c
2014
3162
2887
2a11
2b50
b066
2d7c
1de5
3006
95b0
2b6b
1e0a
a3b9
274a
b0a2
ae96
300c
a41f
acda
25a4
29d2
a993
2d4a
a325
b242
2b94
25ea
a649
3043
2bfc
aa2b
a9f7
28aa
b1d8
302d
aaa5
a71d
2add
2b6b
aa63
276a
29b1
ad4c
20ea
adbb
aca1
2a6e
1453
216f
287e
2899
26b4
a80c
a4c5
ac9f
2d3c
2da9
ac4a
2964
a7a6
aafd
a3a0
a64c
2aad
28e6
ac12
1ac4
a911
2d76
b071
aa31
29a0
a9db
2df0
9a7b
258d
9e00
2cf0
303e
306c
2c73
a815
305d
2ca9
ad0c
2f41
3013
acfa
2534
29c8
a9a6
a111
ac9f
abc7
2c80
3269
ad0e
2caf
30e1
af8b
b218
2bf0
2cbc
22a3
31d4
b0b2
2e6d
312d
297a
2e2d
278d
ad40
2cef
3204
2a17
21c4
2f84
b057
2fc1
2d60
2d3d
32b6
2fc6
2985
2c31
2d67
ab18
314d
2c38
a81b
286a
a3c7
abd0
2c05
318b
22f7
ac42
2b30
b034
2ec4
2d38
adbb
3070
2d2a
ae69
a6e2
28be
ac7d
2d8f
2c61
ad26
ae64
2ec8
2db0
2c2b
2b51
9edc
ac14
30ba
ad5d
306d
322e
2d74
1ce9
3091
aedf
a00a
31e1
acb3
317a
31fc
a54e
325e
325f
aca4
24bf
a538
2c32
3160
3011
2cd7
a2e9
2cb6
2e5d
20d0
277e
2f0f
30ab
28b4
b019
acb2
3370
2a43
2278
2e9c
2a17
300f
2e94
ab0d
2c51
2cdc
b083
30b2
24d1
ac70
2bb3
2f51
2a2b
30ba
2ed9
a9ab
2d85
2fc8
af55
3090
3042
ac6d
317a
269b
21f9
afc5
2feb
ac8b
2d2d
32d3
b445
302f
3007
316b
30b9
3033
aa9e
2dc9
2bf2
af13
2c7f
2ea2
aa05
2b94
2f79
b0c2
a97c
3281
a8b0
331b
34b4
a62c
289b
2d9e
a9ec
ac0f
29b7
28ad
2fe6
2f23
b064
ac01
2b1e
315c
2e5e
2712
a7bf
b257
2849
3289
2f37
ac85
a8ce
32d1
22d0
b07c
332b
2f54
b26e
26d1
2f88
237c
2f62
30c6
1ee7
2e03
2e19
9d2e
2e22
29dc
a63b
2fca
31b2
abdd
32ea
2ea4
28d8
28db
3242
abe9
2865
2ba5
aab0
30c1
1e4d
3050
b1d5
27c7
a8dd
2882
3016
132d
2d68
2aa6
9f33
30f2
3456
b25f
2505
32af
2d4b
a844
2c07
a951
349b
32ca
16d8
addf
2d1f
b04f
a844
2bc1
a9d4
323a
2930
9e01
3469
2ea4
aca7
3133
29a7
b1aa
2c1d
2860
ada8
2a83
9a4a
ae18
b14b
3024
aed5
ac45
3268
2814
3185
2c4c
b356
2f5c
3564
afbb
3083
ab36
a854
2bc5
2fd6
2ddf
2fcf
2c90
2d7f
2beb
327e
2a29
acfd
34df
a210
2c13
2d64
b242
2458
25f9
98a4
2fde
243f
2cd1
2d63
2bd2
ad67
a351
312e
b5dd
2b1f
3229
ad0a
333d
2bd2
2901
28ca
9a6c
2480
32b5
302b
a8f5
3420
2e0d
ab58
2cec
a416
2a8f
2cc7
2f8f
a8a8
2969
32aa
a75f
2f32
a817
298e
3116
9c90
ae07
2479
2b10
b0a4
2d4a
2484
2e73
a521
ac81
2e68
a314
314f
ab31
3115
2afa
ab07
2817
2d02
ad77
2eb3
31b2
9fcd
30b0
aa55
2967
2ad3
22cc
11d8
a982
3434
aa4d
2aed
2e01
2a13
a412
304f
b2a5
afb8
2fe1
af45
a4a8
a506
19b6
2d02
9ed9
2a85
2db8
318d
2d6d
20e2
1f35
2ce2
28f3
2faa
301c
3062
2759
949b
a85c
2eef
a14c
2b65
2fe1
347e
3141
300f
2cbd
2b8c
25bc
28be
2429
2991
98d0
2c4a
3448
ad2c
302b
3083
adfa
2502
3578
ae44
306a
2f76
2187
328a
3069
aed6
2c74
3404
acf1
349f
2e8f
265f
2b2d
2eea
2430
2590
25da
b393
1949
2674
aefd
2d82
2916
adc9
aa99
2fea
3069
2f7b
2e52
a841
2dc8
2e3d
ae77
23c0
2fbb
aecd
9e3e
3156
adc6
2596
317e
aab8
2e6c
317a
2f89
2ec1
2fb5
9d86
335c
3006
a88b
21ed
3177
2ead
311b
2994
9956
3033
2907
aa45
3175
2d9d
2aa8
2d98
30be
a6c1
a7d7
a7f5
12d8
97bc
2d7b
b062
2e7b
214b
2c89
a819
2f74
