a194
28fa
a014
1f66
a9ee
a4cd
a6ba
a102
2c0c
2535
0d55
a9cf
0e3f
2c13
2480
16c0
a0b0
2c36
1e17
2183
19d8
9b2f
a542
a92b
9d48
a461
0d5a
9b35
9a38
a561
26b8
9c8a
2557
9fda
22aa
1ab9
256c
aa37
a4d3
277b
0000
9487
a3b3
22a0
a735
28e0
180d
93b7
a4df
a591
0000
1442
9cab
1e46
a1ac
943f
1160
a04c
a246
2872
a1b1
18cf
0000
906d
1209
95d7
1952
a42e
98b3
88cd
2727
170f
1fe3
0d32
9920
a0d8
ab8a
9c04
a410
9bae
a9e5
185e
aab1
2612
1f28
a053
19d0
2a7e
8fa4
29e7
a4db
1d32
1edb
248a
963d
1e2c
914d
24d3
2486
28aa
a83b
2c75
a12e
aced
0e82
9980
040a
2917
21af
2a65
a962
19dd
9d7e
260b
2420
2462
216d
21d7
173c
0ba3
2358
1e2a
205e
22eb
252b
9c6c
2330
23aa
15d0
18cf
2ad1
9f85
a0c3
1408
1c95
20de
a3fc
a917
9dda
1f3c
080d
29a4
a8e7
9e4c
a71e
28bc
a8e2
a856
90cc
1b38
288b
9edd
2920
a7c9
2586
9ca7
1c4b
20e5
281f
21b6
2675
2b9f
a4ca
a696
aa91
a645
141e
23bb
aecf
1c81
294e
a6a0
9438
29ee
257a
2504
2b40
9ec7
8b2f
a7a2
9c99
afbf
a1a1
a2b0
2615
2030
2042
a03e
1acc
1a02
23ce
1e2a
1676
1838
a01c
2244
1e9c
9e43
8a3b
9abd
1c2c
aa31
243d
aeb3
a404
ac79
2224
0da1
9f6c
adc7
9ff1
19b6
0f29
9c17
a7a7
258f
2997
1fac
9cb5
085b
2684
0000
8f40
26f5
988f
281b
84c2
b37b
a9e2
2995
a936
1b6c
2bab
a5bf
2489
9618
9a32
1a4f
2638
a86a
2d2b
9ef6
97e4
1d59
943b
ad73
23b8
2421
b04f
2414
9d72
9e35
1df1
1cee
2abf
1e2d
2927
2480
a386
96e9
afb0
18d1
2cb4
1cda
9d5e
9ff5
1da8
a5e0
a7ff
1ffe
a2af
28ef
9943
1e31
2f90
a66b
aec6
18e9
ac18
1306
a265
abdf
1744
a220
a6f0
154b
29cd
99f2
1e80
a031
1e5a
211d
2aaa
a80f
1cc6
269d
1ecc
2481
1ecb
2cfc
a035
9d9e
186f
124d
2ed7
8b8e
a4a9
27d6
19eb
1e7e
a44c
a67f
2b35
247c
26c2
2c87
92f0
1a10
a704
1d50
185d
9371
2338
ab3f
1909
a174
0c54
2952
900d
1cf4
a0f8
2145
18d9
a7ac
a8d1
a840
2697
2954
8eff
a5e3
a6a2
26a3
2381
8ee4
203d
a508
2aba
1d74
a3cc
20bd
1cb3
9d7f
a5fe
28a3
9d15
abcc
b043
a8e5
ab84
9a44
a7d5
a204
a97e
9241
9a91
1a36
14ea
241e
2d58
12a3
a886
2c26
244a
2506
2d0a
a92a
1f56
251d
9705
2856
9c92
180e
271b
2ace
9ed3
a44b
a31c
3469
a305
2e77
2632
1fd8
2883
1b90
a32c
241f
a885
a946
a930
a457
263b
a743
289d
a6b2
a500
9ee0
1ea7
294c
8ea4
a268
adbf
1e3e
2d93
0000
9ebe
2a90
91bc
299c
99d7
28e4
985c
8dc7
184c
8f63
8f40
8f4c
9c04
1435
b097
1c53
19f4
245a
21bb
241a
1b70
2395
28eb
2c9a
1948
9f43
21cd
9d41
2787
96e7
950f
0000
a761
1667
a4cd
2536
1ef2
2422
a0ec
97b4
a477
a261
a1f7
90da
96db
a154
a13e
0cb4
9e4a
a622
a6a4
2287
983f
19fd
9d49
2422
1e70
ae79
a8fc
a058
9cf0
a1a1
a6ef
1c7d
9f13
a7a9
25e1
b19d
a7f3
9ccc
286e
95e9
2473
a4a2
9751
9d4a
2537
257c
a30f
a552
a068
a297
a1ee
255c
a8a7
25cd
25b5
0d97
292f
200c
223c
2588
2dc0
a9eb
2b2c
ac7c
a424
0f2a
2dcd
1b2b
1d3e
21cd
2aee
a407
9e44
a6a6
a464
1402
a9b0
a668
2872
9f2a
16c0
a878
92b2
a2ab
aa6f
aeb8
a4b2
a24f
241a
185b
a4d5
25f3
18bd
247f
172c
a9ea
a715
29e1
a9e6
29d7
923a
ab73
2a79
a215
92b8
a50a
a067
a9ec
1f74
a079
a990
8fb5
a6ab
2815
a4e9
1d6e
8e58
2bc4
07e3
9cc2
24e0
95dd
902c
a8ba
1e5b
a963
178a
246c
2047
aab2
