2cc4
a918
240b
2a05
accb
a46e
3332
24a3
a919
a842
a40d
2a8f
a41b
972f
a89a
a167
a861
b0d2
a4b4
2e76
9cce
9e9e
abbb
ac49
10ce
2c00
a815
2cbd
280b
a81f
2b29
2df0
08b8
a85e
aefd
ac15
ac41
ac26
a3d6
2cc9
2c89
222f
9d9a
a641
af28
a764
ad24
aff0
a987
a88f
20bb
214b
a81b
a89e
9040
ab84
a55b
9dc9
21be
9622
2498
294c
a57b
a494
aa18
aa31
2cfb
a6a1
a9e1
ad96
b12d
2ee5
ab64
9ca0
a867
2630
255b
2c0b
a5dc
aada
a340
3093
a288
21f9
223d
27d8
a82e
2937
9e26
a65e
a513
a632
aaf8
2a82
a6b0
aac5
9c4f
a67e
31c9
2889
a867
a35e
a95a
ab9f
28ce
300e
2529
2a86
a93f
2887
2da5
2cc6
1ee8
aa5e
aaed
2479
2b56
288b
1ada
28e8
acf4
a56d
26a3
2987
25f4
2198
a51a
211b
9c74
2260
2ae4
2596
1fe2
2a20
abce
aa6a
26de
278e
2a5b
b0d6
a14b
a971
2193
a43b
a517
2d46
a9a8
89c0
a8b1
28e8
2a36
2807
aaee
a8b6
ab6e
1dff
2d06
229f
aa4f
296a
24b9
26a9
a686
2f11
2e69
a64d
259e
2cff
2406
a9bd
2a05
a70f
3010
2bae
aed3
3268
2c54
aa86
26d8
b0c1
20b7
a45f
acfe
2c74
28d7
0d60
2cdd
ad49
a45d
a611
2797
280a
a203
a643
2fe7
2eac
28cb
3009
2d52
a46c
2a4a
30c6
1815
aede
b09d
2247
ac76
aeab
2b2d
0400
a855
9a4c
2f80
ae47
1937
276e
ac9b
321f
2d4b
ae38
a0f3
2862
2302
afbb
977d
2a56
2fd2
9fbf
b028
a43c
2d66
310e
21ea
2572
1e60
a14b
1f12
b356
291f
a61a
2b85
2c5c
181e
af2b
a92c
23da
1010
2e9f
2f0c
ac71
2cab
3030
948a
afe6
ac07
2cee
0000
2b90
a809
ac6b
a8ba
328a
a8db
aa5b
a05f
afb9
25ee
27b1
a9b3
ac7d
a69c
3271
a910
b0a9
2af4
a09f
a296
2ca8
a46d
2b24
2fab
b04e
267e
28eb
a7bc
a295
aa24
294a
ad07
a97d
2c28
9c28
aa5c
2c4d
abaf
a8f5
a917
2ad1
28aa
a735
a1d4
2e0f
1346
3040
9bda
1944
2b83
2fff
2b6a
2d85
a682
ae73
a815
21e2
2e89
ad38
22dc
2b65
2905
ad28
2989
aaf6
1c06
2842
2425
aaa5
2f5c
a487
ad0f
a6b9
a073
330f
29f1
2d4e
25c2
aa2a
9cef
2e51
2854
ad26
9ce6
a559
9e1a
adb8
b009
af3f
ae80
2f2a
288f
9e4b
af09
2c33
2bf6
1866
b005
a2f8
309d
ae26
2ce8
26c0
afcf
2a1d
28fa
2e2a
2c4e
2f00
2b0c
b0d2
1a3e
2875
21f6
9f30
2858
a58c
2243
a9da
a8e7
a75c
a6bf
2be2
a3ce
2b0c
18b7
a874
aad7
abf9
2d6e
9532
2733
9ade
28ce
a533
a740
1ca4
200f
ac9d
a71d
2aac
ae82
1ead
2ceb
a6ef
286b
a6e1
ac79
2e3c
a413
a174
a55a
2532
2f9a
ac45
a83b
aa71
299d
2821
a9a2
a4b3
2d6d
a8f4
a7a0
a566
a9c7
2ea1
a747
af2d
324b
a725
2632
a4b2
ac01
a81b
ac03
adc7
242d
24bd
a8eb
a74d
a691
add8
202f
285a
ab91
a821
2858
ac0d
2d46
a8a9
3099
a206
9dd7
2b1c
2de7
93e0
ad57
a864
b01e
ae66
a530
a91e
a5a4
a3fa
a528
a420
1ee1
2bbc
9fa5
292a
318a
afb6
ad9a
2ad7
25b7
9abe
223c
249c
a4f7
a846
2b2b
2a07
34cf
ad3c
2831
30de
94b6
a44a
2785
a4cb
ad28
2d0a
2aa6
3069
9f86
2b47
2dc5
9798
a8d7
2c25
1aa8
2807
2ded
a22c
3095
2c6c
ad00
a780
2d59
27c0
2375
abf6
a1c3
2bc9
0000
28cc
a9bf
a715
b0b0
2c45
1812
a46a
2281
a5f8
a824
28e6
29b8
2708
9c29
238c
ad9e
95d2
a8f7
254d
a7c3
2ef7
aa62
a50e
a405
adcb
24fd
246a
a827
2500
a743
237f
245e
a431
ac5a
2d21
9e2f
9cfd
2228
24c5
2d63
27bd
adc7
2499
222e
1968
2632
2d16
241a
2866
2c93
289d
a96f
a7b9
ae3b
1ee1
2730
a31b
ac76
a8cc
a908
0c4c
ac32
a826
