3668
35a4
32e9
ae6f
b056
a50c
2d20
ae24
b1fb
a9d5
b012
2bd0
ad01
b082
b7db
2a1e
9fb2
af3a
ac20
b01c
aef4
2520
2b96
3217
2bd4
31f1
23bb
a546
2ade
249c
345f
b4a8
b25d
ac8a
b414
272b
369a
a8a7
32aa
359f
a4cb
2ddb
37f7
ad60
afb9
ac91
2293
b33e
aef4
2a49
2c91
2c03
9bbb
344b
2584
aa8e
b377
3414
2f39
b93b
26ca
2e4c
25e8
b155
b414
2dae
b437
acd3
3261
23d2
3383
ac58
28bf
278a
2ba4
b266
327e
b5a5
b205
24ad
2c4f
1902
3309
b0a3
acb5
ab60
a692
2ec2
2561
2cbb
35cf
b64c
2b41
3596
b4a5
2fdd
31d1
acd9
aef0
310f
a981
3402
2fd0
2c55
a285
b590
3666
3302
a451
3250
aca6
a499
2edd
34b5
b38b
a670
2311
ad7c
b842
a518
b26d
b1e7
34bb
30b9
38a1
ac18
367a
35ec
2b22
b863
aa3a
aff7
3317
28c5
263e
abaa
30d0
1e8c
b63d
b50b
1fe9
ae9b
b4a0
32eb
af62
2e9f
b637
b09f
b1f4
b1d8
2e5a
2db0
a796
a406
2218
36bf
330f
2e66
3280
327f
ae35
277e
34bd
3581
35b3
a675
2af5
30a8
b07b
1320
b284
afc4
1adc
2dba
340b
29d0
2ffa
21d1
b354
b036
29c4
acea
aa36
2ca4
2da6
2939
2438
a950
b648
b159
b246
b6ff
26ba
2ecb
31b6
b0a4
2b94
2f75
b4af
220e
2887
b253
ab64
3415
3220
3157
2eca
b055
b27d
b531
28ac
a6cc
25bd
368c
ace2
b618
a09e
af35
14c2
b957
b501
a33c
b06d
a4ad
ac69
b1d8
311a
338b
38c0
2e98
b4ec
a803
ad62
b6bb
2cd6
21a6
3026
2a1c
b29b
2f0b
b65c
34dc
b23d
38b2
a8de
3057
ae52
b046
0000
3636
a974
318f
2e14
adf6
afa7
b5f2
a698
ac51
2cce
242b
b59c
b46b
3018
24bb
a4d3
b102
2e1b
b426
304d
3115
b59c
b912
a5fb
2cb6
3161
0000
a704
3192
aec6
af37
25e3
ab0d
1820
2dfe
2de8
36b2
b665
2e9a
ad85
2c81
a81b
27c9
a266
b123
1e3d
2d91
2d56
a6aa
37ac
ad42
32d9
2906
aa45
ac02
ac23
a6c9
2dc8
3642
281a
2899
229e
ae8f
30f8
acca
1d6b
2630
2ef7
a8dc
2856
a858
30ad
b725
a9b4
1e81
36cd
9c64
2f1e
274c
288d
22f4
a90f
b1ba
adbd
2911
a7d8
2e61
2f68
afbc
2e07
aae5
acd1
2c2f
b171
b25b
a276
336b
b267
aa57
a51d
3382
25a0
326b
b269
b639
297c
b58f
b6cd
b557
2c88
b734
26e8
3351
3131
adaa
287f
3246
2bde
2d08
2b00
aa35
b586
34f1
2d21
3029
b365
b15c
3062
31ff
2341
b475
315f
270a
3150
2cbc
b562
3011
3187
b526
340b
ac81
1fed
ab43
ad14
2eb8
3200
352e
333b
ac6d
33b0
ac0b
2d00
ab31
3408
acd0
b1f8
2efd
2cb1
aade
1e62
af59
27a8
b504
b589
aea2
b516
b539
986c
3459
b0e9
b2e7
b292
2a1a
30da
29fe
b49e
aa84
20f2
2f7d
b0a0
1cb9
ae24
b247
a2ec
16de
2906
ae93
b659
1cf7
ad06
a47e
08d8
ace6
b24d
a215
2c78
2856
b743
af2b
b0fc
ac82
2c86
b0a1
328c
a8bd
ae1c
afe4
ab20
250c
2bdc
24a5
a97e
2f35
b086
ab09
3237
36cf
2aa3
352c
3587
2403
2d7d
b342
3503
33c7
b632
af0d
a508
ad40
30f7
2e20
2e08
348d
3272
987c
35fd
3029
3260
311b
ae47
2cc2
3600
268f
2dcf
2be0
b199
b604
b1c2
aafb
21a0
324e
309f
9370
acb4
b891
1f70
30a4
b34f
3554
a2ee
a582
b728
afb5
aded
2db4
2e05
2da5
b659
1da9
b609
3320
b638
243d
35e6
22b9
b4cc
1f20
2ef2
a4c0
2da6
372c
1b6a
1d5c
3295
3173
ae57
2956
acfb
ae35
9fda
a9b6
35d8
aa1e
a989
b130
ad6e
2a30
2c4c
aea3
3475
3065
b47d
3046
3208
33fc
b130
b00e
29fa
2bd0
ac1a
2b6d
b82b
b6d4
b1b7
b3cf
ab30
b291
af5b
b7e8
a40b
ab26
b07d
b901
1d34
2ad5
ac3b
2ddc
