ff55
feba
fe75
ffe1
ff67
fefd
ff3c
feb2
ff4d
fe90
fef0
fecd
fe70
fdd1
ff1e
ff0c
ff76
ff8d
ffaf
fefa
feba
febd
fe90
ff32
ff65
fe71
ff05
ff49
ffda
fefc
0004
feaa
0047
ff0b
feb0
feef
fe6d
feed
0033
ff61
fe27
ffe4
0009
ff0d
fe72
ffc2
ffd2
fe47
ff62
ff09
ff67
fe5d
ff7f
ff97
fe2a
feeb
fda4
0014
feae
ff8a
ff31
ff71
ff62
feab
ff43
002b
ff92
ff22
00ae
ff64
fe5d
fefb
fea8
ff39
fed9
ff62
fec9
feab
feec
ffe5
005c
ff36
fe7a
ff2b
fef5
ff34
ff4b
fded
ff06
ff16
fe58
ff7a
fef7
ff08
ff4f
fe5e
fe41
fedb
fe77
ff70
ff44
ff9b
ff2f
ff49
ff57
fe77
ff87
feba
ff6c
ff94
ff29
ff1d
ff6e
fe70
feb1
ffa3
fe9e
fe91
ffa5
ff19
fe52
fe6a
ff70
fe1b
ff31
0002
ff78
fefe
ff4e
feb4
ff89
ff50
fe31
ff14
fe9e
0038
fefe
ffa0
fe0d
ffa0
fec5
feab
ff35
ff24
fda1
fe40
fed6
fe55
0072
ff8f
fefc
fff6
ff82
ff26
fef3
fe67
fecc
ff59
ffdc
ff29
ff85
000f
fee2
ff55
00c6
ff9d
ff16
fe43
fed9
0021
ff10
fee2
fedc
feff
ff0f
ff88
feaa
feed
fff2
fee6
fed7
ff8d
fee3
fed9
ff9b
ff52
fee1
fe68
ff50
ff06
ff1b
0002
