005f
ff26
fef5
fdbd
fecd
fffb
00b5
006e
fecf
fded
fe17
0009
ffc8
0106
fd31
fee0
fe97
fe57
fef1
ff5c
fe31
ff81
fea3
fee3
fe84
fed9
0081
ff28
ff14
fff8
ff2a
fda3
fe6f
0122
ff18
025a
00eb
004e
ff37
fe39
00a7
0070
ffc5
00de
f8cc
fe5a
004a
00e3
fd62
ffc1
fe93
ffe8
ff4f
fef8
ff08
ffe1
01f8
fe58
ff91
fffc
fdef
fef6
fea0
012c
007b
006b
fe33
fdaa
fda8
fe5b
fb12
ff29
feaa
ff03
fe0f
007e
fef8
ff1b
ff52
fe85
fe59
fbcc
ff5d
fe6a
feaf
fd81
fe39
fe30
fe4b
fe4c
fee9
fcf6
fdea
0000
feb9
fd07
fc8c
fdfc
ff4e
0272
ff63
fe81
ff3e
fef8
ff9e
00e3
00ac
fc94
02a8
ff95
ffc3
fd24
fdcc
fd5f
fff1
010c
fffc
001e
ff9e
fd51
fb3f
ffae
fedc
ff41
fefe
fee1
fcf7
fe6b
fc75
fe63
ff8d
0069
febc
ff04
ff6d
feed
ff45
fe6f
fffb
fcd5
fe1d
feb4
febd
ff4e
ff1a
0313
fdcf
ff5e
ffed
006c
ffe2
fedb
fed1
ff12
fd9b
fe7c
fda2
fd66
fdee
ffcb
0022
ff75
ff58
fa84
feff
fd57
fe01
ff6e
fee3
fe7c
fde1
feeb
00ab
fe7c
feb2
005b
004e
ff37
fea9
fcd0
fe89
ff3c
fe7b
ff78
fd6c
febb
003d
fe84
ff8c
febd
ff00
ff7d
ff17
fe7b
fa19
fc51
ff93
fdb6
fea1
fd1c
ff5d
fd5b
00ee
fbed
fda0
ff29
fdf3
04f0
fe2f
fee2
0199
ff3e
fdd7
0089
fe54
006d
fceb
fcbe
fca8
ffd5
0176
ff27
fd21
ffbe
fc26
fbd2
fe8a
fea1
023c
fccb
fcd7
fe20
0180
ff61
ff6c
fd9a
ff7e
fd25
ffe7
fc55
fe8a
fc17
ff71
ff9e
fe5b
ff4b
fd9b
0118
011a
fd69
fd97
fd35
0005
fe76
fdd2
fd51
fd2c
ffc7
ffe6
0034
0130
ffe6
ff06
feab
fe45
fdc3
fb50
ff11
ff33
fef5
fcd5
fbe9
fdfe
0005
fe2a
ffcc
0195
0129
fec2
fe19
01a0
fde5
ff39
fdfe
fe09
01cc
febc
fe83
ff3b
0099
fffd
0026
fee7
009c
fe48
fdf8
ff5c
005d
fe1f
fee1
fe17
0040
fcd8
ff21
ff1b
fec8
fda9
fcee
ff0f
fe71
01ec
ff4e
ff41
0045
ff95
fe6a
ff66
00c8
fed3
fef9
007f
ff62
0170
ff44
ff71
ffdf
fe50
0004
fe14
ffab
ff41
02c7
ff67
ff3c
0017
ff82
0140
ffa9
fd7a
fc55
fcb9
fea1
0057
fe67
fcb7
0191
00c8
fe97
fd00
fd54
016d
ff65
0095
0079
fe0f
fe2e
fd7e
fec8
ff2b
fffe
fef2
ff2a
fe4e
fffb
fed7
ff27
fe33
fdd1
ffa4
ffc9
ff95
fca9
fe26
fe9b
fee2
fbfa
fce2
ff59
fd12
ff9d
fcd2
ffa5
fef4
00de
fe83
ff82
fdae
fed1
ff9d
00ba
fe2c
fe2e
007a
fd7a
0037
fd97
fda1
008b
ff1d
fef2
fec6
ffd6
fc3d
ff50
00d9
ff47
fe3e
ffdb
fdb5
fe4f
feb4
ff29
ffc1
feb1
005d
fef4
fddd
003a
ff02
ff8b
ff0a
fe6c
003a
ff08
ff88
ff4e
fdef
fd9d
ff2a
fed5
fef7
feea
fe4e
fe0c
fdff
005f
fdd6
fe2d
ffdb
fd8e
fe76
fe1a
ffd3
fe68
ff6e
ff39
ff1f
fe5d
fea3
ffcc
febe
ff79
feb3
fee1
fc9f
fe3a
fe21
fe3b
fef9
00f2
ffd7
ffee
ffe0
00e9
fcf0
ff44
ff80
001a
feee
fe38
fd77
fdd3
ff4c
fe0b
fcfb
fe52
fe4c
fef3
fc9c
fe3a
fa2a
ff88
fe6b
fd76
002c
ff68
fe97
ff90
0138
fe52
fd3f
014c
fe22
00d7
fe35
fe82
ff96
fee8
fea9
007b
ff67
fff6
fea2
fb4c
ffc1
fe8b
ff73
ffd3
fbee
ff0e
fff9
0042
ff4e
fe8c
ffa7
ffaf
fe9e
fdf8
fee5
fff4
fe6a
fd5b
ff9e
ff0e
fe99
fe66
fdeb
fed1
ff84
ffe9
fe36
fdfe
fd74
ffcb
fee3
ff5e
007d
fec1
fe9f
ff0e
fe9a
fed9
fe0d
fe4c
ff6e
fdbd
fe83
fec7
fe7e
fecb
ffa8
ff9c
fe4c
ff6e
fe57
fdab
fdf7
fe0a
ff5c
febb
fec6
febe
00ce
00ae
ff2e
fe87
fe29
fff0
fe13
ffac
fea1
fe87
ff05
0016
fcc5
ff7b
