0054
fff1
fff8
007d
0009
005c
fff1
0021
0039
0062
0061
fffe
001a
0018
005f
0053
0053
fff2
0048
0065
0096
001f
001d
002e
0068
0008
ffee
0078
001e
0039
0025
005a
0050
008b
0047
003b
0039
0069
004d
ff61
001a
0076
001a
004a
005f
ff79
0064
0000
0042
006d
002e
ffde
0021
002e
003a
ff78
0056
0072
007f
006e
0079
0083
0063
0054
003e
0078
000b
0018
ffc2
0085
0027
0057
0013
fffb
0046
0023
fff8
0060
0044
0064
0058
0065
006c
0034
0076
0079
00a4
0059
fff5
001c
0061
0095
0018
005a
007d
006b
0062
ffb5
009a
003f
004e
0027
ffcd
007e
0090
007a
0054
0005
0002
0035
003e
0009
008d
0023
0071
002f
001d
008b
0037
005c
00ac
0049
0086
ffe5
0044
003a
ffda
005a
0089
0043
ffd0
0075
0068
005f
0013
004c
005f
0040
006e
0065
0012
0032
000c
007b
fffe
0042
0065
0009
006b
0056
006f
000b
0027
0041
004c
0090
0058
0041
002f
001c
008f
0080
0053
004b
0053
0047
007b
000d
0015
002f
fff9
003e
0044
0079
0068
0013
001a
0011
0040
007c
006c
007e
0068
006a
0052
00db
007b
0024
001f
0039
0025
0070
005f
003e
0020
0011
0018
000a
0048
001d
001c
0035
00ac
0053
0012
006f
0086
001d
008e
ff1e
004f
006c
005f
0036
000f
0001
003b
0031
fff0
0026
0047
ff67
0051
0071
0036
0031
004c
fff2
0029
0068
0082
ffa9
0050
0047
0041
002c
008c
0018
0051
ffa8
fff6
0066
ffc6
ffe2
00af
0044
0049
0025
006b
0010
0059
0059
0058
0063
003e
ffe1
0062
006d
0069
ffa4
ffc5
0037
0013
000b
0021
0005
009c
005a
0004
0049
0070
006f
0029
005c
0061
0021
0076
001f
003b
001f
0036
0053
0040
005b
ffd8
0094
0006
003c
ff85
0034
0024
001e
006f
0057
ffb7
0001
0089
0048
0065
0052
0031
0062
fff3
0061
004b
006b
0064
0049
002a
002d
0031
005d
0086
000f
0024
ffa9
0063
0022
0054
007f
005f
0077
fff5
0074
0030
0045
ffd6
00a9
0099
002a
0064
005c
003d
00b1
009d
0071
002f
006f
0048
0006
0062
fffd
004a
003d
000b
008e
007e
0059
001e
0035
0052
0059
009f
0073
0031
0070
005c
001a
0043
0066
ffa0
005d
0057
0019
0029
006d
0099
ffe7
0022
fffa
0026
0037
003d
0035
004a
0084
002a
0024
0077
0001
0087
0030
003a
0072
008c
0051
0078
007c
0009
0066
0015
0051
0045
0081
0022
005c
0026
005a
00b5
0051
008c
fecd
0041
0014
0048
004e
0043
0070
0000
004a
0046
0059
ff58
007b
0066
fffd
0061
005b
003f
000f
0016
007d
0063
ffeb
ff71
0031
0029
fffb
002a
007c
0039
ffe4
0057
0034
fffc
0016
0030
0052
006c
fff1
0059
0066
0013
0002
005e
0037
001b
001d
0015
0065
0083
002f
0011
0071
0075
fffa
007d
0050
001b
0052
0052
001b
0013
0028
003b
0045
0057
fffe
0084
0056
0026
0043
004b
0071
0060
0059
003a
0074
005c
006c
0013
0052
007a
0045
00a6
0002
000f
0010
006d
0078
005b
0036
003d
003a
0034
006b
005f
004a
006c
0068
005a
0019
0038
0077
0055
006d
0010
ffd8
006e
0027
005d
005d
0030
0070
ffc0
0062
0033
0018
002e
0007
0075
0035
003f
005a
ff4c
00a7
004d
0014
0017
000b
0048
ffce
0065
0035
003c
fff7
0029
0075
0051
0051
003e
0051
0061
005f
0066
003c
004b
0024
00b4
001f
0058
0074
fff3
0078
0056
003e
00ac
0078
0071
fff4
0043
ffee
0076
007d
004b
0052
007c
00a2
0049
0039
0090
003a
0034
0014
fffc
004e
0041
0050
ffea
0054
0006
0050
002b
005a
0044
006a
0078
ff5b
001d
001e
0042
005f
0068
ff04
0044
0065
0079
0023
0025
002e
0037
fffc
0036
0084
000d
008b
0058
004e
0024
0037
0089
fff7
007a
005d
0010
ffb6
ffe1
0089
0046
fff0
0063
001e
004a
0029
003c
0040
ffe8
0022
002e
007a
0053
ffd0
0019
00b6
001b
0052
0013
0048
0004
0057
003c
0021
0047
003c
feb1
0042
0044
003a
0056
004e
002a
0010
0016
0057
0049
003b
006f
0036
0016
0045
0097
0027
0044
00b7
004b
ffe6
005c
0073
009c
006f
0067
0032
005e
004b
0093
0083
005f
0061
fffd
0001
0065
001a
0056
0044
0081
0042
0095
0051
0092
001d
007d
0045
0045
007f
00c4
002b
0054
0051
001d
ff1d
004c
004c
0018
004e
001c
0020
ff56
00a1
004f
003c
0014
0031
0063
000e
008b
0023
0035
003f
007b
0068
ffd8
005d
0052
ffea
00ad
001c
0071
ffde
000e
0065
004b
001f
0039
0051
006c
006d
006b
0094
0042
0030
0083
003e
0020
008c
001b
009f
0023
005d
0086
0038
00c4
003f
001c
ffb4
000a
006f
0023
0062
005b
000f
0080
004d
002d
002e
0072
001a
002a
002a
0063
0068
004a
0081
006e
0014
0053
0032
fff8
00a5
0042
002e
000c
009a
005f
0042
0030
ff0b
0080
005a
0044
0028
004f
0080
002e
0008
002d
0005
001f
005c
002a
0052
006c
0045
003c
0045
0011
0028
0047
ffdd
005a
0002
003a
fff9
0066
0041
0023
0042
004f
ffe3
ffd0
ffe0
001e
0085
0034
000e
00b6
0028
ffcd
0052
0066
006e
ffce
0017
0034
0070
004c
004f
ff77
004f
0094
0076
000a
ffff
0064
000d
ff83
0037
fffc
0097
0051
0065
0062
0010
0007
00b0
0072
ffe8
fff6
0059
007c
0050
0006
0084
0079
0066
007d
0046
0048
0023
006a
007a
0034
0010
0051
00a5
000f
fff1
0052
003e
0061
0038
000b
004d
001d
0021
0056
0040
0065
009e
0034
0049
0024
ff95
0084
0056
ffbc
0057
0012
0069
0035
0037
005e
0045
0041
0086
0051
002a
0096
0099
002b
0049
0035
005b
0004
008c
fff6
ff04
0056
004d
0098
0020
0047
0041
002f
0073
005e
0048
005e
0094
0022
007b
0013
0036
002e
002b
0054
0017
fffc
0083
0028
005c
0047
0036
005e
005e
0073
ff69
0036
0077
ffc3
0042
003d
006b
006a
0067
0068
0010
0025
0088
0010
000d
003c
004b
ffee
0013
0002
0028
fff0
002a
ffe6
fff4
002c
0015
0003
007d
005c
005e
fff8
ff08
00b3
0002
0039
0058
0025
0023
007d
0011
0037
0014
0028
0021
009f
003d
0060
004d
0038
0043
004c
0087
0063
ffd5
fff8
002a
0021
000e
0069
003c
003f
ffff
0058
0039
0031
0005
0075
002e
0072
ffb8
0027
0031
0030
0050
004f
003e
005c
0070
0047
00a5
00c4
004c
ffd2
0016
0056
001d
0020
005c
0034
0028
0034
ff5f
002d
008b
0029
0029
0062
0043
001f
005e
0073
0005
0082
0021
008d
004a
004d
0033
0032
0058
0020
005b
00a2
0067
0089
0050
0003
0050
003d
006d
005a
0029
006e
001a
005e
003a
0034
ffe9
003e
0027
004f
0058
0068
0064
003e
006b
0073
0001
0048
0039
0037
007d
00aa
0076
ffbf
0001
001a
0056
0031
004a
00a8
006d
0070
004e
003e
fffd
005a
0058
ffff
00a6
0084
ff5d
007e
0022
006a
002f
0000
0016
0040
0041
007c
0032
003b
005a
0056
0068
0047
0036
0010
0069
000e
004b
001d
004c
0028
002f
003b
0065
005d
001a
0053
001f
002d
0088
001d
006e
007e
ffc2
0029
0079
007a
0091
ffe4
0023
0013
0076
000c
0010
006a
008c
005c
004f
0010
0066
fffe
005f
001e
0040
0040
0037
009a
004f
001b
ff46
004a
0004
004f
004d
0027
ff0d
0079
fffd
fffe
0052
fff5
005f
000a
0069
0057
0057
0026
002a
0032
0034
0073
ffc0
006c
0014
0071
0039
0010
0046
0045
ffd6
0051
00ae
0018
0000
002d
0037
0059
0008
0039
0053
002e
002d
0052
0068
ffa7
0015
003d
003f
0000
0046
fff2
0078
0064
0023
0056
0085
0058
005f
ffde
001c
005f
0026
0004
0030
0048
00b1
0092
003f
005b
0010
0082
008b
0076
0094
0042
0085
0036
0050
005a
003a
0093
0034
003b
0067
0052
0008
0085
006f
006b
001a
0079
0071
0094
0067
0018
000d
0063
002e
002f
0011
0072
007d
0032
0066
002f
ff9f
005b
003b
0007
0030
0062
0058
ffff
000a
0048
0065
004e
006c
0063
0025
006b
0029
002a
0034
0075
003b
0015
005a
005a
001b
0075
0060
0047
0034
ffc0
006b
001a
009e
0051
00bd
003c
0094
003a
00ad
0048
004a
0044
0062
ffe9
002b
ffe3
0013
001f
004a
005f
0069
006b
0040
0034
0066
ffdd
004a
fff7
0049
0038
0004
006d
0034
ffe9
0000
004d
0035
0059
005c
002c
0043
000a
0038
fff9
ffe9
0029
0053
0056
0092
0076
002e
0034
000c
0037
0017
0053
fde6
0036
0082
003a
0045
0055
004a
0039
0029
0039
0019
ffff
0038
0016
0050
0074
0061
0085
0018
0028
0043
0016
ffa4
ffe5
0071
0056
ffe4
004f
0030
0060
0011
0058
0040
fffa
ffeb
0049
0024
0047
ffdc
0038
0062
000d
0062
0034
004e
ff09
ffd1
0011
0070
0039
00a1
0022
0063
0054
ff51
0000
0047
0046
fff7
ffd2
0032
0030
0060
008d
002b
0044
fff1
0042
0053
0018
ffee
005e
0058
005d
0059
ffd2
0070
0021
007e
ff39
0020
005a
0030
006b
0059
001f
ff22
0063
0085
004b
0016
002e
fff5
003e
004a
003f
0067
006b
0053
0056
0077
001b
004d
006a
0064
002f
ff3d
008b
005d
0025
0065
0064
0050
ffd2
0098
0068
000c
0048
0012
0052
0028
0055
001c
0043
0085
ffee
001e
ffe7
0029
0041
ff88
0065
0038
003e
001d
000e
000a
0066
0089
006f
0027
004a
0048
0046
0030
007e
0036
002e
001c
000d
003a
fff8
0030
0026
0091
003b
004c
0079
ffee
000c
0061
0030
0072
001a
0032
0035
00a6
004a
0046
0010
fff3
ff7b
0051
0023
0016
