fffa
fffd
ffff
fffb
fffd
fffc
0001
0001
ffdc
fffc
0000
000d
0000
0005
fff8
fffe
0007
001e
ffff
fffd
000c
ffff
0001
0010
0003
fff6
0000
0000
fffe
0001
fff6
fffc
fff7
0004
fffb
0001
fffd
0002
fffe
fff1
ffff
0000
0001
fff5
0005
ffff
0000
0006
000a
fffb
0000
fffc
ffff
0000
fffe
fffe
0000
ffff
fffd
0003
0004
fffe
0000
0000
0001
0002
0002
0003
fffe
0000
fffc
fffe
fffd
0000
ffff
ffff
0002
0000
0000
fffe
fffe
0000
0006
0002
0000
0002
0001
fff8
0000
fffe
0003
fffe
0001
0000
0002
0001
0000
0000
fff7
fffe
fffd
000d
0001
ffeb
0000
0002
ffff
fff9
fffc
fff6
0000
0002
fffe
fff7
fff8
0000
ffff
fffc
fffb
0000
ffff
0000
fffc
000a
0001
ffff
0004
0000
0000
fffd
fffc
ffff
0008
0001
0000
fffd
fffc
ffff
ffff
fffb
0000
0002
0001
0000
fffa
0003
0000
0000
0001
0002
fffd
fffe
0001
fffc
fffe
0000
0004
0009
0005
fff6
0008
0008
0000
0008
0007
fffd
fffe
0002
0001
fffa
fffa
000d
0000
ffd8
000c
0004
fff7
ffff
0003
0005
0000
fff9
0000
fff0
000b
ffff
0000
0003
0001
0000
fffd
fffc
0000
0001
ffff
ffff
fff5
0002
0007
0002
ffff
fffd
0003
000c
ffff
0009
0002
fffc
0005
fffc
fffe
ffff
ffff
fffd
fffd
fffc
000f
fff7
fffe
0004
fffe
0000
fffb
000b
0000
fffc
0015
fffc
fffe
ffee
fff9
fff8
0007
ffff
fffa
0000
0000
0002
ffe1
0003
fff7
0004
0000
fff8
fffb
0001
fffb
fff5
0011
0004
ffff
fffe
fffc
0001
fffb
fff3
fff5
fffe
0002
0001
fff6
0000
ffe8
fffd
000b
0001
fffd
ffff
0003
0000
fff4
fffc
0000
fffb
fffd
0003
004b
0004
000d
fffe
0008
0004
0000
0005
0004
ffff
0008
0006
0000
0000
0001
fffe
0000
0007
ffff
fff8
0000
fffa
fff7
ffea
0006
0000
fff7
0000
0005
0000
0006
0016
0000
fffc
0004
0004
00e5
fffd
ffff
fffc
0005
0000
ffff
ffff
ffff
0002
fffc
0008
fff8
fffd
ffff
fff5
ffff
fffc
0008
fff9
fff7
0006
fffe
fffb
fff7
fff0
0000
ffff
0008
000e
fffa
0000
ffff
0014
0013
0001
0001
0007
ffff
001a
0001
fff0
ffff
ffff
0005
0011
0003
ffff
ffe2
0006
fffb
fffe
0000
0000
0001
fffe
fffe
ffff
0000
0003
0004
fffa
fff1
000f
fffc
fffa
0001
fff8
fffd
0001
0006
fffc
0002
0011
ffff
ffa5
0005
0004
fff6
0000
0004
0004
0000
fff9
ffea
0001
0001
fffc
ffff
0000
fff5
fffc
0001
fffc
fffa
0000
0000
fffb
000a
000c
fffc
fffe
fff9
0000
0001
fff9
fffe
0007
0000
0000
ffff
0000
fffe
0003
0003
ffff
0015
fffc
0000
0000
fffd
fff8
0000
fff8
0001
fff4
0006
0000
0001
fff7
fffa
0000
0001
0000
fff2
fffe
ffee
ffff
fffe
0005
fffe
0000
fff6
0001
0009
0000
0002
fff2
0003
ffff
fffe
0002
0001
0004
0000
0002
fffd
0000
ffff
ffc5
000a
fffe
0008
fffe
fffd
000b
000c
0011
000d
003e
ffff
0005
fffa
ffff
000a
0007
0000
0001
0004
0000
0000
000a
fffe
0004
0003
fffe
0008
fffe
ffff
0000
ffef
0000
0002
fff6
fff1
001f
fff9
0016
fff6
0000
fff4
0000
0001
fffc
fff1
0008
0003
000d
0001
0000
001f
0009
ffff
ffff
0000
ffff
fffe
0002
0003
000a
0000
fffa
fff9
0000
0001
fff4
fffa
ffff
fffe
ffef
0003
0012
000d
fff8
0000
000b
fffd
000c
0007
fffe
fffd
0013
ffff
0020
ffff
0000
0009
fffa
0004
0004
0000
fffd
0000
ffe7
ffef
0009
fffe
fffe
ffff
0018
ffff
0004
fff1
0006
