fee4
ff2f
fec6
fe84
fed3
ff47
fee2
ff1c
fefd
ff0d
ff35
fe78
fec5
ff47
ffca
ff27
fefc
fd65
ff2d
ff0d
ff5f
ff13
fec5
ff76
fef8
fe46
ff10
feed
fef9
ff4d
ff59
fe65
ffc1
fefc
feca
ff15
fea9
ff06
fe68
ff2a
ff08
ff06
fef9
ff45
ff62
feef
fee9
ff93
ff12
feac
ff16
ff1d
ff01
fefa
fe85
ff0e
ffb5
ff3b
ff19
fec1
ff1b
ff56
ff31
ff45
ff2f
feee
ff13
ff38
fee7
ff1a
feb3
ff45
ff2e
ff18
ff0d
ff4e
fe2c
ff46
ff61
ff22
fedf
ff04
fed9
ff95
fee6
ff28
ff2e
ff1a
ff26
ff6c
fe92
ff61
ff12
fed9
feb8
feda
ff64
ff40
ff44
ff13
fe1d
fed9
ff45
ff34
ff34
fec1
ff3b
fefd
ff5d
ff50
ff86
ff30
ff1f
ff14
ff97
ff37
ff0d
ff28
fecb
ff1d
ff41
fed9
fea7
ff05
ff52
ff1e
fe82
feab
ff15
ff2d
febe
ff35
ff5c
ff13
ff1a
ff58
ff3f
ff81
ff0e
fef8
ff16
ff7b
ff7a
ff1c
ff50
fe85
feed
ff0f
feb9
fee2
fed4
fec2
feb7
ff69
ff21
ff0b
ff25
ff07
ff4c
fe80
fed9
fefa
ff7f
ff47
fed8
ff70
ff25
ff14
ff7f
ffc6
ff2b
ff86
fefe
ff89
feeb
ff02
ff6f
ff26
ff62
ff1c
fef2
ff47
ff9c
fece
ff59
ff4c
ff12
ff36
ff26
ff6e
fed0
ff61
fef3
ff62
fef7
ff51
ff3e
ff60
fedb
ff17
ff23
fed1
ff8a
fe91
ff50
ff71
fece
ff43
ff1e
ff70
feb3
ff28
ff17
feea
fef3
ff08
ff3d
ff33
ff2b
ff4c
fef0
ff24
fef6
ff32
ff1a
ff3b
fee7
fe96
ff75
ff16
ffbe
feb0
ff46
fefe
ff59
ff26
ff4e
feb6
ff0c
fea1
ff58
fea4
fecd
fe3e
ff6f
ff25
fefc
fdfe
fef6
fee2
ff39
fed8
feee
ff37
fec6
ff56
fe80
ff0a
fef3
ff15
003b
ff68
ff95
ff21
fef9
ff55
ff03
fe02
fed4
feb9
fee8
ff02
ff3e
ff08
ff2e
ff36
ff1c
fef3
ffe0
ff3a
feeb
ff1f
ff07
fec4
ff38
feef
fe8d
ff76
ff04
ff36
ff0c
ff2f
fe88
fea7
ff10
ff28
ff0a
ff20
fe9e
fedc
ff30
ff46
ff3a
ff10
ff5d
ff1b
fe95
fe4f
ff1a
ff18
ff00
ff1e
feda
fec0
ff2e
feb6
ff3d
ff29
ffc3
ff3b
fee9
ff1e
ff14
ff44
fefc
ff1d
ff14
ff1b
ff27
ff26
ff36
ffbd
fee9
fedd
ff27
fedd
fed4
ff08
feeb
ff1a
fef3
ff6e
ff5c
feeb
ff23
fefc
ff4b
fea4
ff20
fed7
feff
feac
ff7d
ff62
ff10
ff2f
ff68
ff99
ff4e
ff54
ff87
ff8c
fefd
ff1b
ff0e
ff0a
ff11
ff5a
ff0e
ff43
ff66
ff50
fe9c
ff3d
ff7e
ff19
ff0b
fefe
ff20
ff5e
ff2d
ff02
fea2
ff3d
ff53
fef0
feaf
0025
ff39
ff60
ff05
ff29
ff0b
ff41
fed6
feda
fe31
ff22
ff58
fed2
ff4a
fee6
ff6e
ff3e
ff44
fe99
fede
feed
ff1b
ff46
feda
ff34
ffa3
fec5
ff50
fed1
ff25
ff6c
ff49
ff3c
ff11
ff0d
ff78
ff21
ff52
ff18
fede
ff37
ff59
ff1d
ff31
ff42
ff6c
ff14
ff3c
fecf
ff3d
ff19
ff3b
feea
ffb3
ff15
ff77
ff14
ff29
ff16
ff0f
ff2b
ff2a
ff26
ff2a
ff02
fec9
ff2c
fed6
ff44
ff49
ff2d
fef6
feac
fedf
ff06
ff0b
ff3e
feff
ff11
fef6
ff24
ff39
ff07
feec
ffef
fe5a
fee8
ff41
ffa0
ff18
ff41
fef1
ff04
fead
001f
ff08
ff7a
fea6
fedc
fee9
fed1
ff94
ff53
fec9
ff19
ff19
fe70
ff58
ff21
ff1f
fe6e
ff22
ff2a
ff55
ff45
fefb
ff4c
ffaa
fed0
ff3f
ff34
ff3f
ff18
fedb
ff1b
ff5d
ff3e
fec1
ff14
ff30
ff37
fee4
fee5
fee2
ff15
fec8
ff4f
ff58
ff02
feec
ff02
ff46
ff08
ff21
ff9a
ff34
fef0
fe9c
feee
ff22
fed5
ff1d
feb1
ff33
ff0f
ff32
ffca
ff92
ff00
ff13
ff50
ff4d
fea8
ff48
fee7
ff09
ff55
feeb
fee2
febe
ff1c
fe4e
fee4
ffaa
ffc3
ff9a
ff79
ff1d
ff4f
ff13
ff31
ff13
febf
ff0a
ff4c
ff19
ff63
fff7
ff13
