fe7f
0020
ff59
fd6f
ffdf
fec5
0018
ffc2
ffb3
fd9c
fecd
000c
ffe0
ff49
fef4
fd53
ffae
0011
ff9c
fda0
fd5f
ffb4
fe1d
fed2
feab
ffdb
002b
fefa
ffb5
ff1c
ff79
fe08
fe68
fe82
ff40
ff94
ff7c
fe0c
fd56
0085
ffa6
ff10
fe13
ffa0
feaf
0079
fd94
0000
fe73
fe12
ffa3
00b0
fea4
febe
fd82
0149
fef9
feb3
fedc
febb
ff3f
fe9b
ff97
ff94
fedd
fec7
ffce
ffd9
0060
fe08
ffb7
ff15
ffc9
0006
ff55
fe96
ff9c
ff60
febe
fdb0
ff1d
ff32
fe12
fef4
fed7
fe2a
fdf6
ff76
0035
feaa
fec4
fe6a
ffa9
fec8
fe49
fe81
ff6a
0081
fd4b
fe4e
fdf6
fe46
0041
fea1
fe7c
fe78
ff59
ffe4
fe23
fde2
fe7a
fe68
fef2
ff23
fe52
ff06
ff6c
fe94
feb7
feb6
fdb8
fe56
fe5d
007a
fdc4
ff5a
0025
ff05
fe4a
fec5
0061
feac
fee7
feaf
ff25
ff2b
fd58
fe88
fde6
feca
ff6a
ff5b
fe29
fefe
0002
fee5
fd0a
ffef
fe3f
fe6d
fe04
ffef
ffc0
fd1b
fe18
fe54
ff16
fe83
fdb8
ffbf
fe70
fe5c
fe41
feb3
fdd8
ff30
fe99
feba
ffc6
fe7f
000a
fe57
fc2a
fee2
fd23
ffb0
ffc1
ff20
fefd
fce2
ff3c
fea7
ff1a
feb9
fee5
ff16
fcde
ff87
ffba
ff17
ff14
feb2
fed8
fede
ff9a
ff58
ffb8
fe9f
fe85
ff6b
ffaa
fd8d
fe3f
febf
ffb2
ff52
fe27
fe78
ff63
0137
fe3d
fe4a
fd81
ff5c
ff45
0011
ff17
feff
001f
ff33
ffa1
0098
ffa8
fe2f
fdfa
feaf
ff77
0027
ff89
fd2c
fe58
0060
fef6
ff68
ff01
ff68
fddf
ff70
fe01
006b
fd53
fda4
0041
0056
fe8c
fece
fcfe
ff82
fe6e
fee9
ff79
ff05
ff6a
fe38
ffb2
001d
fe4c
fe66
fe36
0074
0030
fe50
fe22
ff49
ffda
fdd8
ff05
feef
ffae
feff
ff15
fd49
ff15
ff63
fe48
fed9
fe9e
fe85
feb8
ff9b
ff8c
fe6c
feef
fe37
0049
fee5
ff93
ff93
00ca
ff97
fdec
fe51
fd8e
fd5c
0042
fffc
ff00
fe2e
ff09
ff64
feec
fe3f
fed4
fe2e
fedd
fe34
ff7a
ff4d
ffb1
ff03
feca
ff2e
fd4e
fda4
fdf9
00da
fd6e
ffa6
ff4a
fe65
feb1
fdd4
0011
fecf
ff23
fe95
fe75
fe9d
fe4d
fe74
fe43
ff15
fedd
feea
fe16
ff04
ff51
feb1
fe04
fff4
fed7
fe0d
fda6
ff68
ffdb
fcad
fdaf
fe0a
fe63
fe45
fdf6
fedd
fdfb
fe9e
fef4
fdcb
fd3c
ff9d
fef0
ff60
00fd
ff74
ff29
ffb7
fcda
ff52
fe00
0023
ff90
0006
ff24
fdb0
ff68
ff7b
feba
fe86
ff2b
ff74
fbf2
fffc
fe20
ff08
ff9d
fea0
fdf6
febb
ff4a
fda0
fea3
fef1
ffca
ff42
ff7a
fec6
fed0
ff21
ffa5
feeb
fd6f
fe37
ff34
0151
fe50
fe7f
fceb
fee9
fe69
fe7d
fe45
fef4
ff30
fd72
00a2
fe81
ff33
fe8e
fe17
feec
fecc
ffef
ffc0
fe54
fd89
0023
007b
ffb7
ff28
ff80
ffbd
fefd
fe71
0031
feab
fee9
000f
ffda
ff48
feca
fe49
0032
ff4e
fec0
ffb8
004a
fec3
fddb
ffbc
ffce
ffc4
ff3d
fe45
ff33
ffe3
fe51
feee
000d
feda
fed2
ffab
ff06
ff4a
ffbb
fe1a
fde1
fedd
ff44
fe73
0003
fee5
ff0e
ff1d
feb0
fec6
fe9c
fe90
fe53
ff83
fe9b
fe52
fe0b
ffc9
ff53
fdbf
ff54
fe2c
fe82
ffe3
ffe6
fde3
fdc0
fec8
ff9a
fdda
feee
fec9
fea6
fed3
fe44
fe07
ff1d
ff0e
ff59
ff41
fe5e
fdde
fe82
ff66
0054
fe3c
ff9d
fef9
feed
ff6e
fdb2
0048
fea2
fdbe
fe0f
feef
ffdf
fe6c
feef
fe81
fdff
00b1
fed5
fea2
ffd5
ff39
fedc
fcd1
0071
fec2
fdf1
fed9
0027
ffcc
fcdf
fe7a
fe4b
fe9b
fe4c
fdfa
fe87
fddf
fecf
ff46
fe6f
fea2
ff57
ffaf
fea8
008e
fea8
fe8c
fecb
fba6
fe06
fe3c
0018
ff2a
fec2
fe70
fdb3
ff3f
ff17
fea2
fe7f
ff58
ff24
fda5
ff75
ff57
ff5a
fe74
fee0
fed3
ff2a
0023
fef8
fec9
fe41
ff17
ff94
ff21
fd98
ff75
0097
ff77
ffbe
fe92
fe45
ff05
0108
ffb0
fde5
fe15
ff82
fe98
ff32
fed3
0005
ff4d
fedc
ffde
fe7a
fee1
fe01
fe8a
fe78
fe58
0015
ff8b
fd24
fdd4
0067
0063
fea3
ff22
0027
fe15
ff02
fcde
ffa8
fd52
ff6c
0032
ffa7
fecd
feed
fe81
0040
feb2
fe1a
ffaf
ff10
ffbe
fd5a
008c
ff2d
ff60
fe2b
ff35
ff3a
01d9
fdfe
fe3a
ff71
ff21
ff2b
fe63
ffa6
ffde
ff60
ff1b
fd66
ff23
ff19
fe91
ff5c
fe8b
ff02
fe79
feed
ff50
fe36
fe85
fe1a
fe8c
fe3d
ff54
ff09
ff69
ff53
fdaf
fdb2
fed7
fee9
000c
fffd
fe9d
fe20
fdf6
ff34
fdcd
fe76
fe88
fee3
fee2
fe4e
fe78
fddc
ffaa
febc
ff1e
fe62
fdee
fe8f
fef9
0154
fe01
fef0
ff0d
fed2
ff92
fe8d
00df
ff24
fe77
fe0b
febb
fea1
ff56
fe77
fe73
ff44
ff85
feb5
fe43
fe9d
002a
feb1
fcd3
003d
fde1
fed7
fe91
0039
ffd9
fd9d
fdcb
feed
fee3
fe15
fe5b
fe8b
fe1a
fed3
ff22
fdf8
fe39
ff4d
ff97
fee0
ffca
fe8f
ff7a
fe33
fcfc
fe23
fe5d
ff86
fec5
006d
ffec
fcfe
ffdb
fe82
fe94
ff66
febb
fe9d
fcee
ff16
fea9
fef2
fe4f
ffa4
ff25
fe3b
ff32
fe6f
fe7e
ff10
fec2
ffba
000f
fd69
fee0
ff8b
ff98
febf
febd
fcec
ff2b
01a5
fdc2
fdf8
fd0b
ff4a
fe4f
fece
ff7d
ffec
ffc4
fefe
ff99
ff1a
ffa3
fdba
fe7e
ff1d
ff4d
ff5e
ffd6
fe59
fd80
00fc
ff96
ffe9
feb0
ff98
ff02
fecd
fd31
ff35
fe54
fec4
008a
003d
ffbe
fe4f
fdb4
ffee
fe12
feab
0053
fe90
fea8
fe51
003b
ffb2
ff02
fe57
fdce
fe14
00a4
fe7c
fec2
febf
ffe9
fe73
ff04
ffd5
00d5
fe6b
feae
fecc
fe85
feda
fe72
ffba
ff92
fe7a
fedc
0021
001e
ff49
ff3b
fde1
fff1
feb2
fe90
fe70
ff43
fec7
fd38
fe4d
fee5
feac
ff30
ffa2
fe13
fec9
fee4
0034
fe72
fe9d
fd7e
ff37
ffd9
ff45
ff5c
ffa2
fef4
fe0f
fec9
fde3
fdbd
fd4a
fefe
00be
fe3e
ff09
0074
fdff
ff0f
fdb6
ff8e
feef
feef
fea4
fecb
fe1c
fe9c
fedc
fe7b
ff13
feca
ff55
ffbe
ff2f
fff6
feac
fda4
00a6
fe91
ff12
fe16
fec8
ff12
fcfa
fe5d
fe88
fdd3
ff3d
fe02
fe66
fe68
fdd5
fed9
fea4
fd3e
ff4c
ff01
ff7b
ffae
fe0d
ff90
fe3d
fc7c
febd
fefe
ff28
fede
0071
ff79
fdf6
004d
fec6
fe2a
fe2e
fed1
ff37
fe70
ff33
ffca
fe83
ffc1
fe25
fec9
ff43
001a
fe7f
fec1
ff56
fe7f
feec
0029
fe43
fedf
ff9f
ffec
fe8a
fe68
fe9a
002a
01fd
feb3
fc9f
fcbb
ff3b
fe87
ff2a
ff39
ff29
ff4c
ff23
ff1e
ff8b
fee8
fed4
feb4
fea5
fe89
ff3f
ff63
fdc3
fe46
0093
000a
fefb
ff59
ffeb
fe4e
fefe
fcc3
0002
fe2a
fe3b
ff6e
ff9c
fe0b
fef4
fecd
0054
ff0f
feb7
ffaa
ff0a
ff68
fe75
ff46
ff25
ff04
fe6d
fdc9
fe94
003d
fe63
ff42
ffc9
ff40
ff1f
ff20
ff14
ff90
00db
ffa1
fd7c
ff46
fef4
fe2b
ff4c
ff2c
fe53
fe2e
feb1
fece
fe47
fda7
fe49
fe58
feed
feaa
fec9
ffab
ff70
fd8e
fef5
fdfc
fdb0
ffdd
feed
fe3f
fdfe
fdc0
ffba
fe90
fed1
febd
fe86
ff60
fecb
fe36
fef2
ff0f
ff81
feed
fe48
fd4a
fecd
fe9b
fffd
fd24
fedd
fea0
fec7
fe80
fe8d
005f
ffb7
fee6
ff32
ff08
ff38
fe19
ff29
feba
ff13
ff97
ff27
fedc
fea1
fff4
fe1d
fd92
0108
fea2
ffb4
fe69
ff29
0000
fd82
ff57
fe36
fe1d
fed8
fdd2
feb3
fead
fe1a
ff23
ff75
fef9
ff39
ff50
ff6a
0098
fe73
fe68
fed9
fd2a
fed9
fed2
feee
fe96
ff89
ff79
fdac
ffad
ff39
feb4
004a
ffbb
feaf
fd87
fe9e
0031
ff81
ffcc
fe97
fedf
ff2f
ff0f
fdf3
ff03
ff17
ffd7
ff4d
0004
fcf5
fe89
ff58
ff66
ff1f
fe12
fd8b
ff91
0129
fef3
fdac
fc66
ff0c
fef7
00f7
fe59
ff33
ff1d
fe73
000e
ff59
ffb5
fe18
fe27
fe26
ff70
ffb4
ff8f
fde0
fd39
0082
ff43
ff65
feac
ff7b
ffb6
feef
fdb4
0030
fd1c
fed0
ffd9
fffc
fde0
fde3
fe6b
ffd1
ff0a
fee6
ff76
ff1d
ff57
fed4
010d
ff80
ff53
fe19
fe90
fec9
0215
fe68
fe64
ffa6
ff5b
fee1
febd
feb4
004f
fe86
fe94
fd3c
ffd1
ff69
fee9
fe45
fdc0
febf
fecc
ff5e
ff45
fe83
feaf
fea0
ff21
fe73
ff88
fefe
ff0f
feb7
fd98
ff1f
fe09
fe8e
ff27
fff3
fd9b
fe14
ff0b
ffd2
fe72
fe76
fe65
fdd7
ffda
ff42
fdc3
fea8
ff4e
ff6c
ff0e
fe24
fe5c
fcf2
fef7
00c5
fd68
ff55
fe37
ff10
feeb
fdc3
0003
fff0
ff38
fe9e
fef1
fe2f
feb8
ff94
fe9c
ffb1
ff4b
ff72
fdf6
fea9
ffc5
fdab
fcb5
ffc3
ff0f
fe49
fdd0
ff73
0065
fdc3
ff19
fdf1
fe5e
fe74
fdf2
fe19
fe6a
fe9e
ff24
fee8
fe24
fdd3
0026
ff4a
0048
fde3
ffab
fece
fca7
fe80
fe15
fe2c
ff55
ff0c
0037
fd1e
009e
fe23
ff1d
ffee
ff1b
ff6d
fcc1
fff9
ff21
ff23
feeb
fe67
ff87
fe2c
ff89
ff17
ff35
fe2a
fe47
ff4b
ff3e
fde0
ff04
ff66
fe78
ff64
fe75
fe59
ff4c
01fc
fef5
fda7
fc71
ff4b
feda
feca
feb9
ff93
ff06
fe5c
0003
fef5
ffde
fd9b
feed
fdeb
fe96
ffdc
ff4d
fe26
fd43
00a0
002c
ff27
fe96
ff08
fcf3
ff35
fd1e
ffd0
fdef
ff51
001d
001f
fe7d
fe36
fe7a
0084
ff44
fe8d
ffc8
ff35
fee8
fe3b
010c
0054
ff52
ff25
ff1e
fe62
ff93
febd
fea7
0098
0001
fec9
ff39
000d
005a
feab
fea3
fd72
ff13
ff14
fdf9
0017
ff2a
fe06
feea
0017
ff61
fe8c
ff2c
fef4
0030
fe6d
ff7c
fe75
0094
fef7
fdc7
fe47
fd55
fef3
ff4e
0120
fe21
fd60
fe7f
ffdd
ff14
fdd2
ff0e
fea8
ff2c
fea8
fe18
feda
ff41
ff15
fe57
fe87
fdcd
fe07
fe25
00f7
fdd1
ff3b
ffc3
fe3d
ff02
fde7
0055
fdcb
fe8b
feb0
ff12
ff4e
fe43
fed2
fe0f
fea0
fe43
fe7f
ff2b
fe5f
00c9
fe66
fd8a
00e8
fed7
fefc
fe8f
ff79
ff29
fd7d
fe8b
fe25
fd17
feac
feb2
fe83
feaa
fec1
fed9
ff79
ff41
ff15
ffe4
ff3b
000e
fed9
ff07
fe07
fd6a
ff14
fed4
0012
ffdd
ff68
fed5
fd5a
ffd5
ff65
fea3
fe5c
ff04
ff8f
fd3b
001e
0064
ff21
ffc4
ff06
