0038
ff17
fef6
fdcf
fedc
0006
00bc
0064
fee9
fdd3
fe3a
ffe6
ffcb
010d
fd21
fee6
fe61
fe6c
fefc
ff3e
fde7
ff7d
fe9d
feb0
fea4
fece
0081
ff3e
ff35
fff2
ff48
fdb6
fe4e
0136
ff0a
027c
00fd
0042
ff33
fe71
009a
0067
ffcb
00b0
f8ad
fe5b
0050
00f4
fd7e
ffd9
feaa
ffdb
ff5b
fefa
ff0b
ffeb
01f5
fe57
ffa3
0002
fe1f
feee
fe95
015a
009e
005d
fe42
fd9b
fd97
fe56
fb05
ff15
fecd
fef2
fe1e
0077
fef3
ff1f
ff51
fe98
fe5c
fbde
ff4a
fe72
fea9
fd57
fe5c
fe45
fe3e
fe45
fef7
fce9
fdfe
fffe
fea7
fcfc
fc88
fdfe
ff24
0278
ff6a
feab
ff49
fec4
ff72
00f5
00a8
fc74
02da
ff81
ffc3
fd16
fdec
fd3d
000e
010c
fff5
0012
ff7d
fd5e
fb44
ffb1
fec4
ff78
ff0b
fef7
fd0c
fe6e
fc8e
feb9
ff83
006d
fee6
ff11
ff6d
fef8
ff52
fe72
fffa
fcb3
fe3b
fead
feb7
ff45
ff06
031f
fdcc
ff60
fff1
0075
ffec
fef4
fed7
ff09
fda0
fe6d
fdec
fdac
fe02
fff5
0002
ff8e
ff58
fa64
fee8
fd65
fe19
ff81
fee5
fe54
fdc7
ff13
00ba
fe40
fede
0070
002e
ff31
fe71
fcba
fe7d
ff47
fe71
ff9d
fd52
feb6
003f
fe64
ffa0
feca
feea
ff6e
ff2f
fe3f
fa2b
fc52
ffaf
fda8
fede
fcfa
ff57
fd50
0102
fbd6
fd9e
ff12
fe06
0508
fe1c
fee7
01a6
ff2b
fdcc
009a
fe5c
0057
fcc6
fc87
fcdf
001d
016a
ff02
fd3c
ffa3
fc27
fbe1
fe38
fea5
0237
fc7f
fce4
fe2a
0192
ff68
ff82
fd86
ff66
fd3d
ffa9
fc43
fe97
fc09
ff81
ff92
fe2c
ff46
fda8
00f9
0101
fd73
fd94
fd32
002a
fe7e
fdc8
fd75
fd02
ffbd
0012
0048
013b
ffe7
fed2
fe85
fe89
fde1
fb47
ff15
ff1d
fef5
fcb5
fbdf
fdfb
0027
fe26
ffb8
01fe
00ff
fe9c
fe40
0180
fdcf
ff34
fdc8
fdef
01cb
fede
fe52
ff40
0085
0025
0032
feec
0087
fe45
fde0
ff67
0089
fe0d
feca
fe49
0033
fcbb
ff4f
ff0f
feda
fdd4
fcb8
ff12
fea3
01ca
ff35
ff99
0024
ff94
fe72
ff15
00cb
fed4
fef5
007b
ff6a
014e
ff1e
ff98
ffcf
fe4c
002e
fe18
ff33
ff6c
02af
ff45
ff4f
0020
ffa0
015d
ff80
fd8a
fc54
fc9b
fec0
0083
fe35
fca9
01ab
00a3
feb5
fd13
fd1c
0154
ffaf
0089
0055
fe0b
fe30
fd70
fee2
ff25
ffea
ff32
ff0d
fe5e
0029
fec0
ff27
fe69
fdbd
ff9e
ffb2
ff98
fcb1
fe18
fe7f
fed0
fc40
fcc9
ff49
fd02
ff82
fce4
ffcf
ff0c
00d6
fea1
ff5c
fdb1
ff03
ff8b
00c7
fe68
fe31
0089
fdb8
0034
fd7e
fdbc
0083
ff10
fee7
febe
ffd0
fc5d
ff63
00d5
ff3d
fde8
ffdd
fda7
fe61
fe9e
ff5f
ffba
fead
006e
fef6
fdb3
004b
fef1
ff9f
ff1c
fe6e
0021
ff18
ff6e
ff30
fe18
fd99
ff0e
fefa
ff07
feee
fe54
fdd2
fe07
00af
fdde
fe04
0004
fd88
fe6a
fe47
ffbe
fe54
ffa5
ff4c
ff6f
fe7c
fe68
ffc8
feb1
ff63
fec3
fefe
fc77
fe28
fe3d
fe05
ff01
0125
ffaf
ffe0
fffb
00db
fce4
ff5b
ff7f
0004
fed9
fe38
fd66
fdea
ff23
fe11
fd11
fe47
fe59
ff20
fc64
fdf8
fa52
ff44
fe6d
fda3
001f
ff85
fea6
ff7f
0121
fe6c
fd4b
0156
fe27
009f
fe51
fea8
ff84
fecc
fec9
0072
ff64
0007
fe70
fb57
ffaa
fe59
ff5b
0014
fbc9
fed0
0012
002f
ff3b
fe8c
ffbe
ff9f
fecf
fe18
fed1
0030
fe61
fd6e
ffe9
ff36
fe96
fe84
fe0f
fed4
ffa9
ffd2
fe2a
fe0a
fd74
ffef
feff
ff60
0066
fee4
fe89
ff0c
fec4
ff0b
fdea
fe85
ff49
fda0
feab
fe95
fe76
fef7
ff86
ffaa
fe5f
ff22
fe4e
fdf3
fdf8
fe10
ff7c
fea4
fead
fee3
00a8
00a7
ff46
fe3b
fe02
0011
fdee
ffb3
feac
fe3d
fef8
002d
fca2
ff66
