fefb
ff14
0023
fe7e
ff5b
fed4
fec6
fec3
fe36
fed5
fec0
ffd1
fe43
ff99
feb6
fefb
fd8b
fe53
fe31
fecb
fe2f
ff06
ffa6
ff67
feb2
ff86
ff39
fe58
ff0c
ff2a
ff3f
feee
ff07
fe4c
fedd
fea0
fed5
fec2
ff11
fe12
ff4c
fe56
ffb1
fe15
fed0
fe2a
fece
ff0e
ff32
feb6
feca
ffb5
ff97
ff6a
ff4d
ff5d
fed1
fe93
fe59
fe9a
fe14
fe60
fda2
fe0a
ff2d
fe76
ff7c
fe9d
fee8
fe6e
febd
fec0
ff2c
fea2
fecd
ff91
0030
fe45
ff23
fece
feb7
fe72
feba
ff4a
fe77
fe92
fe11
fe41
ff9f
ffa5
fec3
fe34
ff51
fed7
fe81
feb4
fe2b
ff0f
fe1f
ff3d
ff14
ff89
fe9a
fe70
fe42
fe85
fe8b
ff9d
fff8
ff60
ff3e
ffe4
fe17
ff7b
fea6
ff57
ff71
fe4d
ff50
fed7
fdf1
ff1f
fe66
ffa3
ff30
ff00
fe00
febe
fe5e
ff26
ff2b
fe89
fe9a
fecd
ffb5
fedc
feda
ff38
feb3
feb4
ffa7
ff1e
ffda
fe4e
fe6a
ff1f
fec0
fed8
feb7
fef5
feaf
fe90
fe93
ff30
ff19
fe47
febb
ff32
ff6f
fef9
fe45
fe78
ff03
ff0e
ff04
fee9
fe79
ffd3
ff24
ff6d
fec3
ff42
ff12
fe68
feb6
ff69
ff08
ffbf
ff1f
fe73
fe4f
fe71
fe7d
fea8
fee9
fcdd
fe6f
ff35
fef6
ff2f
ff76
fe98
fec1
ff2f
ff38
ffb3
ff39
ffdf
ff1e
ff76
ff32
ff5c
fdf1
fef3
ff74
fe1b
fe6a
ffa4
fd73
fee5
ff0f
feb4
fed8
ff0d
ffc2
003b
ff26
ff54
ff0b
ff67
fe1f
fe68
fdbf
feaa
ff5d
ff63
fe80
ff59
ff17
feb9
fe72
fe73
fee8
feab
ff1c
ff2e
fe58
ff85
ff0a
fea1
001d
fec7
fe69
ff68
fddc
ff20
ff16
ff37
feb3
ffc6
fe36
fec2
fe5d
fed0
fe1b
fdf7
fed3
fead
fec2
feb1
fdc0
ff57
ffc5
ffce
fe0c
ffef
fdd3
fecb
ffdf
fefe
fe64
fea3
ff69
fe58
fed7
ff8f
fe89
ff9d
ff40
ff34
fecb
ff00
ff25
feeb
ff07
fe0d
ffdb
fe9a
ff13
fec1
ff93
ffa2
fead
fef1
fe0d
fe06
fe1f
ff26
fe96
fe82
ff58
fed5
002a
fedb
ff03
febd
fdfe
fec8
feb6
ff5d
ff5c
fe95
fe5c
ffd1
ff91
ff66
fecd
ff12
fe9e
fe7b
fed0
fe99
fea4
fe81
ff4a
ff26
007f
fde9
fe2b
ff7e
fecf
feac
ff32
fda1
fe27
fe6e
ff35
fe9c
ff26
feb4
feb8
0007
ff1c
fedd
ff4e
fe2b
fe80
fef3
ffa3
ff5c
ff08
fed2
fe20
fe92
ff54
fead
fede
ff58
ff18
fe2a
ff6f
fe2b
feb0
ff31
ff79
fe24
fe32
feaa
ff39
fe13
ff6e
ff58
fedd
fef0
ff10
fe61
ff5c
ff47
fef5
fe4e
fe68
ff54
fe8a
fe95
fe59
fef9
fe08
fe85
ffe3
fe9d
ff18
feb6
fe9a
fe57
ff90
fea4
fef6
fecc
fdcf
ff0a
fdd7
fe96
ff37
ffc0
ff17
fef4
ff30
fea5
0000
ff00
feef
feeb
fe5f
fe82
fe6d
0007
fedb
fec7
ff30
fe06
ff34
fe82
fed0
fede
fe19
fe69
ff61
001a
fe8d
fe4a
ff50
feee
fee7
ff4e
ff79
feb1
ff36
fef2
feb4
ff78
fe84
feb5
ff62
000f
fece
ff5a
ff0c
feae
ff2e
fe64
fe6f
ff44
fea5
fea7
fe70
ff02
fe5e
fef6
ff34
fedc
fea6
ff0a
ffc5
ff85
ff36
fee0
fef2
fe9f
fe42
fec9
ff70
ff27
ff08
fe9a
fed2
feef
fec4
fe90
fee5
feba
ff2f
fe9a
fe8a
fed4
fe0a
fff8
fec5
fe96
feb5
fe92
fed5
feac
ff48
ff3a
ff53
fead
fec3
ff1c
feb8
fe7e
feb8
ff8f
ff1c
fe93
fefe
fea9
ffb4
ff2b
feae
ff02
feb8
fec0
ff14
fea8
fe69
feca
ff62
ffb5
ff61
ff86
fe96
ff4b
ff3b
feef
fe6e
fdd2
ff0c
fef1
ffa4
ffdb
ff15
ff44
feb8
ff5e
ff37
ff9d
fe2f
fe82
ff04
ff09
ff3b
ff09
fed9
fed5
feca
ff38
fec7
ff8f
fdc5
ff76
fd67
fe91
ffdc
fe83
fef2
ff32
fe9a
fe96
fea5
ff00
feff
0038
fe94
fe82
fecf
fed2
fe78
fe0a
febb
ff27
fe48
fedb
ff17
ffa7
000a
fef7
ff27
fecc
fed5
feda
ffeb
ff0b
ff60
fde8
fefe
febc
fda2
fe44
ff6b
fee5
ff31
fede
fe8b
fe92
fdeb
fecf
fe91
ff45
ff88
ff49
ff48
fe6f
ff19
fe48
ff1d
fe53
fed5
ff13
ff8e
ff55
fe5d
ff25
fd49
fed9
ffcd
fecb
ff78
fe4e
fef6
ff49
fed3
ff92
ff0f
fed9
ff43
feca
ff20
ff0e
ff68
fe5d
fefe
fea2
ffae
fdda
ff33
fed7
ff4a
ff20
000c
fead
feeb
ff9a
fee7
ff0f
feaf
ff38
ff2f
fee1
feb9
fed4
ff80
ff8d
fe7d
fe71
fef1
ff47
fe5c
ff36
ffb9
fec7
fe28
ff75
ff2c
fd8d
febd
004c
fee0
fea4
fe16
feab
fe3e
ff4b
fe41
feb8
fe3d
fe6e
fec2
feb2
ff8e
fe64
fec0
ffb0
fefc
fef2
fe79
ff32
fe2d
feee
fe11
ffa6
fe7e
ff2e
fe01
fe62
fd27
ff7b
ff02
ff01
ff98
fef7
ff1a
fefb
ffa8
fefc
ff57
ff9c
fed9
fda1
ff0b
ff4b
ffbf
ff62
fe49
ffd4
fe52
ff6d
fedd
ff35
fe89
feb6
fe31
fed4
fef5
ff61
fdf6
ffa0
fe9d
fee8
ff2c
feca
ff1d
ff96
ff3d
ff0c
feb5
feab
febc
fe13
ff05
ff6d
fe6e
fef4
ff3a
fe27
fed9
fe0e
ff4b
fee6
fe51
ff57
fdaa
fea8
ffa4
fed8
feda
fe9b
fdf0
fecb
fee1
ffb6
fe5e
ff0a
ff70
ff57
fe95
ffa3
ff7e
fed7
fe88
fec2
feda
fe72
feaa
ffb5
fef1
fe50
fef3
fe01
ff1f
fef7
ffb5
fe0b
fecb
ff2c
ff46
ff02
fe78
feef
ff28
ff54
ff0f
fe5a
ff0d
ff14
fe3c
ffec
ff3a
fea8
fedf
ff06
feb2
feff
fefe
fec8
ff0f
ff84
ff23
ffcb
fdda
ffb8
ff44
002b
fe93
ff29
ff91
fefa
ff0d
005b
ff70
ff16
fee9
fe6a
ff61
fe25
fddb
ff7f
fef5
fefe
febd
feae
fe74
ff4b
ff45
fea9
ff1a
ff11
feb0
ff0b
fe20
fe80
feff
0003
fe99
ff4f
ff1c
ff56
000b
fe0f
ff02
feb0
fecf
ff73
ffd6
fde1
fe83
fea1
ff5a
fe8a
fe0f
ff0d
ff02
fe58
fe86
fec4
fdfb
ff17
ff1e
ff93
fe99
fe79
ff35
ff8e
ff0b
fde2
ffcc
ff7a
ff03
ff3b
fed2
ff20
ff5f
febe
ff7d
ff1e
fed4
ff3f
feb4
fe23
ff61
ff1c
ff80
ff25
fe6d
fecc
ff09
fef7
ffbe
febd
fecb
ff41
febf
ff25
ff28
fe6b
ff00
ff72
fe31
fdcf
ff70
fec3
fe18
fe9d
fede
fe40
001c
fda0
fef1
fee3
fe35
ff95
fef9
ff2e
ff70
fe97
fee4
feda
fee2
fe36
ff95
fe8d
ffbf
ff54
ff6f
ff4a
fed9
ff8a
0018
fe74
ff13
fee5
ff0f
ff4e
feb5
fe97
fe7b
fdca
fee7
fe99
fea2
ff27
ff47
febc
fea3
fe68
febe
ffbe
fe74
fe55
ff61
ffd7
ff39
fec8
feb1
ffc4
fff8
ff4f
0030
ff70
feda
0023
ff6a
ff75
ff97
fe78
fee3
fed4
ffae
ff08
fdc1
fff8
ff43
fe9e
ff8b
ff77
fe0a
ffbc
ff19
ffb4
ff6a
ff41
fdde
ff35
fecc
ff0b
ff50
feec
fea3
fe64
fed0
ff89
fe89
ff6a
ff6d
fe8d
febf
ff2d
ff32
ff3c
fef4
ff51
ff10
ffde
fe9d
ff60
fe87
fe80
ff73
ff63
fe9e
fedd
fe89
ff3f
fe84
fe58
ff02
fe02
fdaf
ff10
feab
ffbb
fea2
fec8
ff7b
fea2
ff39
ff6d
fecd
fee4
fecc
fe52
ff56
ff72
fed6
fee3
ff87
fedf
fea3
ffee
fe53
ff9a
fe51
ff1c
ff15
ff50
ff5e
fedc
ff13
fe3f
fe12
fe99
fe63
ff0a
ffc2
feee
ff44
feb5
feed
fe9c
fea7
ffa8
fecf
ff4a
ff12
004a
ff45
ff79
fee3
fe29
fe9c
fece
ff3e
fe9e
fe92
feef
ff1c
ff3f
ff50
fe64
fdf2
fe8e
feda
fff1
ffa7
feaa
ff50
fed8
fe06
fe5d
fe95
fee2
fe82
0009
fed4
fee8
001b
fe0c
fe6c
ff13
fe70
feed
feb6
ff49
fffa
ffbb
fee3
ff3a
fe88
ff58
ff4c
fedf
feec
fec5
fef4
feed
ffc6
fe5c
ffc2
fe98
004e
ff14
ff83
ff63
ff43
feae
feca
ffa6
fefb
ff51
ff15
fe61
ff22
fe45
fe6a
fe8a
fe8e
fe7b
fe8c
fe35
fef6
ff43
ff2b
fe8e
ffd5
ffc0
fe7f
fe59
feb8
fedc
ff10
fe4c
ff52
fed0
ffa1
fee4
fed4
ff2f
fe30
ff0e
ff5a
ff0e
fefd
fff2
fef5
feea
ff78
fe85
fe8f
000b
0005
ff01
fe92
fe5a
ffac
fec3
fef8
fef7
ff43
feaa
fed9
ff61
fe98
ff35
fe40
ffa2
fe96
fed8
ff77
ff0e
ff2b
fe67
feff
fdc2
fea8
ff44
ff78
ff5a
feeb
ff93
ff2f
fee6
ff18
ff57
fe95
fea6
ff82
ff8b
fef5
ff42
0000
ff18
fff2
fe8d
fecf
ff09
fe7d
fe40
fee1
fece
ff41
ffa6
fed6
ff88
ffce
ff1c
ff09
fde3
fe43
ff31
fed3
ffb8
fde7
fe4b
fe85
fe2c
ff04
fe63
fecf
fee7
febb
ff44
fe3f
ff3c
ff4c
febe
fec3
fe92
fe69
feb0
fe7c
fea7
fe89
fea2
fe3b
fec8
fe91
ffc9
fed0
ff6c
ff37
ffaa
fe63
fe86
ff67
feb7
ff5a
ff41
fee7
feff
ffea
ff52
feb1
fef3
ff43
fe80
fee0
febe
fef2
feb9
febf
ff1e
feab
febc
ff4c
feff
fe9e
ff44
ff2b
feed
fed8
fef4
fe59
feda
ff28
fefe
fef3
feb9
ff9d
fe22
ff07
fdb8
ff49
fe41
ff4b
fddc
fef0
ff03
ff31
fed6
fee6
ff4b
ff4b
ffc5
ff1b
ff0b
fec8
febb
febc
ff3d
ff1b
fe8d
fed6
ff13
ffea
ff22
ff30
ff75
fe6a
ff03
004a
ffd8
fedb
ff38
fed0
fee3
ff0a
ff34
ffc3
ff31
001b
0043
ff83
fea1
fea1
fe47
fe5b
ff27
ff5d
ffc4
ff55
ffb7
fea2
fde6
ff44
fe71
ff3a
fedb
fee5
ff0b
ff47
ff08
ff34
ffb3
ffc9
ff3e
fe82
ff0a
fe74
feda
fe60
fe73
ff52
ff36
ffba
ff18
feda
fe50
fef1
0062
ff03
ff42
fece
ff29
fef6
feeb
ff9b
febb
ff1d
ff93
ff25
ff8f
ff18
fecb
ff6b
fe7e
ff4e
ff11
fe9e
ff06
ffb2
fe59
ff2c
fe13
ff34
febe
fef4
fe2f
fe76
ff14
fee8
fea2
ff1f
ff60
ff67
fed7
fdf9
ff60
ff31
fecf
ff03
ff06
ffac
fe89
fe50
feec
fe95
feca
fe43
fea6
ff51
fe7b
fddd
ff91
feee
ff6d
feb4
fecc
ff7b
fed7
fed5
fe65
ff18
fe94
ff55
001f
ff1f
ff16
ff0b
feb9
febd
feec
fea0
fe4a
ffab
ff0d
febe
fed2
ff72
fed1
fe5b
fe8a
fe8e
fecb
fe9a
ff0d
ff12
fe36
feba
ffd7
fef8
ffb1
ff04
ff78
fefd
ffa7
ff33
fe64
0041
ffa2
ffd1
ff80
ff38
ff3a
feae
ff39
ff3d
ff6b
ffc9
ffdf
fec1
fe62
fea1
ff81
ff12
ff1f
ff1d
ff62
fe5a
fee7
ff45
ff99
fefd
ff16
feff
ff5e
ff76
fe49
ff4a
feea
fe6d
fe0b
ff40
fe33
ff5e
fea0
fe95
ff16
ff58
fe05
fef7
fe63
ffcd
ff2d
fdc0
fecc
fea5
ffaf
