0003
fff1
fff0
ffe8
ffee
0000
000a
0005
ffdb
ffdf
ffe5
fffe
fffc
000f
ffce
ffea
ffe8
ffcf
fff2
fff6
ffe0
fff8
ffec
ffec
ffed
ffcc
0009
ffea
fff6
ffff
fff4
ffc8
ffe6
0012
fff0
0031
0010
0003
fff1
ffe8
0009
0005
fffc
000a
ffa3
ffe5
0004
000e
ffd7
fffe
ffda
fffd
fff7
fff2
fff0
fffe
001f
ffe6
fffa
0000
ffe7
ffee
ffea
0014
0009
0004
ffeb
ffdd
ffd9
ffe8
ffb2
fff2
ffee
fff0
ffdf
0006
ffef
fff2
fff5
ffec
ffe8
ffc9
fff1
ffe7
ffea
ffd8
ffe6
ffe6
ffe6
ffe8
ffef
ffd3
ffe0
ffff
ffeb
ffcd
ffca
ffdf
fff2
0023
ffef
ffec
fff4
ffed
fff7
000e
0009
ffc9
002a
fff9
fffc
ffd1
ffe1
ffd8
0000
0010
ffff
0000
fff8
ffd7
ffb9
fffb
ffea
fff8
fff0
ffee
ffd2
ffeb
ffc8
ffeb
fff8
0006
ffef
fff4
fff7
fff0
fff6
ffe7
ffff
ffcc
ffda
ffea
ffec
fff5
fff0
002a
ffe0
fff6
ffff
0006
ffff
ffef
ffee
fff1
ffdd
ffe9
ffe3
ffda
ffe2
ffff
0000
fff9
fff8
ffb2
ffef
ffdc
ffe6
fff9
ffee
ffe7
ffdc
fff3
000c
ffcc
ffed
0006
0002
fff4
ffec
ffcb
ffe9
fff4
ffe9
fff9
ffd7
ffec
0003
ffea
fffa
ffed
fff1
fff8
fff3
ffe6
ffac
ffc4
fffb
ffdf
fff1
ff5b
fff6
ffd6
000d
ffbd
ffd8
fff1
ffde
0048
ffe2
ffef
0019
ffee
ffdc
0008
ffe6
0004
ffd5
ffd4
ffd1
0001
0015
fff1
ffd6
fffb
ffc6
ffc7
ffe6
ffeb
0026
ffcb
ffcf
ffd3
001f
fff7
fff8
ffdb
fff8
ffdd
fffa
ffc8
ffee
ffc9
fff8
fff2
ffdf
fff5
ffd6
001e
0013
ffd8
ffdb
ffcf
0002
ffe7
ffe0
ffdd
ffd1
fffc
0000
0003
000d
fffe
ffee
ffe9
ffea
ffdf
ffb4
ffec
fff1
fff1
ffd6
ffc4
ffe4
0002
ffe1
fffb
0031
000c
ffec
ffe8
0016
ffdc
fff5
ffe2
ffe1
0016
fff0
ffe7
fff5
0007
0001
0002
ffef
0007
ffe6
ffe1
ffef
0006
ffe4
ffe6
ffe5
0003
ffcf
fff6
fff1
ffef
ffe0
ffcb
ffee
ffeb
001c
fff4
fff8
0001
fff8
ffe5
fff2
000b
ffef
ffee
0007
fff6
0035
fff2
fffa
fffd
ffe6
0002
ffe3
fff4
fff6
002b
fff4
fff5
0002
fffb
0015
fff7
ffdc
ffc5
ffc9
ffea
0006
ffe5
ffce
0018
000a
ffeb
ffd2
ffd3
0020
fffb
0008
0005
ffe3
ffdc
ffd9
ffed
fff2
fffe
fff4
fff4
ffe9
0002
ffe8
fff2
ffe6
ffe2
fff9
fffb
fffa
ff7b
ffe2
ffe9
ffee
ffbd
ffd0
fff5
ffca
fff9
ffd1
fffd
fff2
000a
ffeb
fff6
ffde
ffd0
fff9
000a
ffea
ffe1
0007
ffdc
0002
ffde
ffd3
0006
fff3
ffee
ffeb
fffd
ffc7
fff7
000c
fff5
ffdf
fffd
ffde
ffea
ffed
fff5
fffb
ffed
0006
fff1
ffe2
0004
fff0
fffa
fff1
ffea
0001
fff3
fff9
fff4
ffe4
ffdc
fff0
ffed
ffee
fff0
ffea
ffe5
ffe7
0009
ffde
ffe0
0000
ffdb
ffea
ffe6
fffb
ffe5
fffb
fff4
fff4
ffe9
ffe6
fffc
ffec
fff7
ffee
fff0
ffc9
ffe5
ffe5
ffe1
fff0
0011
fffa
fffe
ffff
000e
ffd1
fff6
fff8
0000
fff0
ffeb
ffdc
ffc4
fff2
ffe6
ffb4
ffe7
ffe6
fff3
ffcc
ffe1
ffa4
ffeb
ffe7
ffde
0001
fff8
ffec
fff8
0010
ffe7
ffdd
0015
ffe4
0009
ffe8
ffe8
fff9
ffed
ffef
0006
fff8
0000
ffe6
ffb2
fffb
ffe6
fff2
0001
ffbe
ffee
0001
0002
fff4
ffe8
fffc
fffa
ffee
ffe3
ffef
0003
ffe9
ffbf
fffe
fff4
ffe9
ffeb
ffe5
ffef
fffb
fffd
ffe7
ffd9
ffdb
ffff
ffee
fff6
0005
fff2
ffe8
fff1
ffed
fff3
ffe2
ffe9
fff5
ffdc
ffed
ffec
ffec
ffef
fff8
fffa
ffe7
fff2
ffe4
ffdf
ffdd
ffe5
fff8
ffea
ffec
fff1
0009
0009
fff4
ffe6
ffe3
0000
ffdf
fffb
ffec
ffd9
ffee
0002
ffc9
fff5
